#ifndef MFCC_H
#define MFCC_H


unsigned int MFCC_len = 28272;
unsigned char MFCC[] = {
 0x20, 0x00, 0x00, 0x00, 0x54, 0x46, 0x4c, 0x33, 0x00, 0x00, 0x00, 0x00,
  0x14, 0x00, 0x20, 0x00, 0x1c, 0x00, 0x18, 0x00, 0x14, 0x00, 0x10, 0x00,
  0x0c, 0x00, 0x00, 0x00, 0x08, 0x00, 0x04, 0x00, 0x14, 0x00, 0x00, 0x00,
  0x1c, 0x00, 0x00, 0x00, 0x90, 0x00, 0x00, 0x00, 0xe8, 0x00, 0x00, 0x00,
  0xd8, 0x4f, 0x00, 0x00, 0xe8, 0x4f, 0x00, 0x00, 0xa8, 0x6d, 0x00, 0x00,
  0x03, 0x00, 0x00, 0x00, 0x01, 0x00, 0x00, 0x00, 0x04, 0x00, 0x00, 0x00,
  0x12, 0xaf, 0xff, 0xff, 0x0c, 0x00, 0x00, 0x00, 0x1c, 0x00, 0x00, 0x00,
  0x40, 0x00, 0x00, 0x00, 0x0f, 0x00, 0x00, 0x00, 0x73, 0x65, 0x72, 0x76,
  0x69, 0x6e, 0x67, 0x5f, 0x64, 0x65, 0x66, 0x61, 0x75, 0x6c, 0x74, 0x00,
  0x01, 0x00, 0x00, 0x00, 0x04, 0x00, 0x00, 0x00, 0x8c, 0xff, 0xff, 0xff,
  0x19, 0x00, 0x00, 0x00, 0x04, 0x00, 0x00, 0x00, 0x0c, 0x00, 0x00, 0x00,
  0x61, 0x63, 0x74, 0x69, 0x76, 0x61, 0x74, 0x69, 0x6f, 0x6e, 0x5f, 0x35,
  0x00, 0x00, 0x00, 0x00, 0x01, 0x00, 0x00, 0x00, 0x04, 0x00, 0x00, 0x00,
  0xfa, 0xaf, 0xff, 0xff, 0x04, 0x00, 0x00, 0x00, 0x0c, 0x00, 0x00, 0x00,
  0x63, 0x6f, 0x6e, 0x76, 0x32, 0x64, 0x5f, 0x69, 0x6e, 0x70, 0x75, 0x74,
  0x00, 0x00, 0x00, 0x00, 0x02, 0x00, 0x00, 0x00, 0x34, 0x00, 0x00, 0x00,
  0x04, 0x00, 0x00, 0x00, 0xdc, 0xff, 0xff, 0xff, 0x1c, 0x00, 0x00, 0x00,
  0x04, 0x00, 0x00, 0x00, 0x13, 0x00, 0x00, 0x00, 0x43, 0x4f, 0x4e, 0x56,
  0x45, 0x52, 0x53, 0x49, 0x4f, 0x4e, 0x5f, 0x4d, 0x45, 0x54, 0x41, 0x44,
  0x41, 0x54, 0x41, 0x00, 0x08, 0x00, 0x0c, 0x00, 0x08, 0x00, 0x04, 0x00,
  0x08, 0x00, 0x00, 0x00, 0x1b, 0x00, 0x00, 0x00, 0x04, 0x00, 0x00, 0x00,
  0x13, 0x00, 0x00, 0x00, 0x6d, 0x69, 0x6e, 0x5f, 0x72, 0x75, 0x6e, 0x74,
  0x69, 0x6d, 0x65, 0x5f, 0x76, 0x65, 0x72, 0x73, 0x69, 0x6f, 0x6e, 0x00,
  0x1d, 0x00, 0x00, 0x00, 0xec, 0x4e, 0x00, 0x00, 0xe4, 0x4e, 0x00, 0x00,
  0xcc, 0x4e, 0x00, 0x00, 0xb4, 0x4e, 0x00, 0x00, 0x9c, 0x4e, 0x00, 0x00,
  0x7c, 0x4e, 0x00, 0x00, 0x4c, 0x4e, 0x00, 0x00, 0xbc, 0x4c, 0x00, 0x00,
  0xec, 0x4b, 0x00, 0x00, 0xdc, 0x15, 0x00, 0x00, 0x4c, 0x15, 0x00, 0x00,
  0x3c, 0x03, 0x00, 0x00, 0xec, 0x02, 0x00, 0x00, 0x2c, 0x01, 0x00, 0x00,
  0x10, 0x01, 0x00, 0x00, 0xe4, 0x00, 0x00, 0x00, 0xdc, 0x00, 0x00, 0x00,
  0xd4, 0x00, 0x00, 0x00, 0xcc, 0x00, 0x00, 0x00, 0xc4, 0x00, 0x00, 0x00,
  0xbc, 0x00, 0x00, 0x00, 0xb4, 0x00, 0x00, 0x00, 0xac, 0x00, 0x00, 0x00,
  0xa4, 0x00, 0x00, 0x00, 0x9c, 0x00, 0x00, 0x00, 0x94, 0x00, 0x00, 0x00,
  0x8c, 0x00, 0x00, 0x00, 0x6c, 0x00, 0x00, 0x00, 0x04, 0x00, 0x00, 0x00,
  0xea, 0xb0, 0xff, 0xff, 0x04, 0x00, 0x00, 0x00, 0x58, 0x00, 0x00, 0x00,
  0x0c, 0x00, 0x00, 0x00, 0x08, 0x00, 0x0e, 0x00, 0x08, 0x00, 0x04, 0x00,
  0x08, 0x00, 0x00, 0x00, 0x10, 0x00, 0x00, 0x00, 0x28, 0x00, 0x00, 0x00,
  0x00, 0x00, 0x06, 0x00, 0x08, 0x00, 0x04, 0x00, 0x06, 0x00, 0x00, 0x00,
  0x04, 0x00, 0x00, 0x00, 0x01, 0x00, 0x00, 0x00, 0xeb, 0x03, 0x00, 0x00,
  0x00, 0x00, 0x0a, 0x00, 0x10, 0x00, 0x0c, 0x00, 0x08, 0x00, 0x04, 0x00,
  0x0a, 0x00, 0x00, 0x00, 0x02, 0x00, 0x00, 0x00, 0x02, 0x00, 0x00, 0x00,
  0x04, 0x00, 0x00, 0x00, 0x06, 0x00, 0x00, 0x00, 0x32, 0x2e, 0x31, 0x31,
  0x2e, 0x30, 0x00, 0x00, 0x4e, 0xb1, 0xff, 0xff, 0x04, 0x00, 0x00, 0x00,
  0x10, 0x00, 0x00, 0x00, 0x31, 0x2e, 0x31, 0x34, 0x2e, 0x30, 0x00, 0x00,
  0x00, 0x00, 0x00, 0x00, 0x00, 0x00, 0x00, 0x00, 0x2c, 0x95, 0xff, 0xff,
  0x30, 0x95, 0xff, 0xff, 0x34, 0x95, 0xff, 0xff, 0x38, 0x95, 0xff, 0xff,
  0x3c, 0x95, 0xff, 0xff, 0x40, 0x95, 0xff, 0xff, 0x44, 0x95, 0xff, 0xff,
  0x48, 0x95, 0xff, 0xff, 0x4c, 0x95, 0xff, 0xff, 0x50, 0x95, 0xff, 0xff,
  0x54, 0x95, 0xff, 0xff, 0x96, 0xb1, 0xff, 0xff, 0x04, 0x00, 0x00, 0x00,
  0x1b, 0x00, 0x00, 0x00, 0x66, 0x7f, 0x51, 0xeb, 0x1e, 0xdc, 0xb8, 0x52,
  0xa5, 0x3a, 0x81, 0x2c, 0xd1, 0xc2, 0xe9, 0x3c, 0xf4, 0xe5, 0x70, 0x12,
  0x81, 0x0d, 0xc7, 0x05, 0xdd, 0x8b, 0xe4, 0x00, 0xbe, 0xb1, 0xff, 0xff,
  0x04, 0x00, 0x00, 0x00, 0x0c, 0x00, 0x00, 0x00, 0xe9, 0x8c, 0xff, 0xff,
  0x70, 0x59, 0x00, 0x00, 0x19, 0x7b, 0x00, 0x00, 0xd6, 0xb1, 0xff, 0xff,
  0x04, 0x00, 0x00, 0x00, 0xb0, 0x01, 0x00, 0x00, 0x09, 0x27, 0x8c, 0x17,
  0x2d, 0x2d, 0x31, 0xf5, 0xa3, 0xda, 0xe0, 0xc9, 0x7f, 0xde, 0x36, 0x26,
  0x05, 0x86, 0x06, 0x4e, 0xdc, 0xaf, 0x0c, 0x59, 0x46, 0xdd, 0xcb, 0xd3,
  0xdd, 0x08, 0x59, 0xa8, 0xad, 0x5c, 0x98, 0x6f, 0x2e, 0x28, 0x69, 0x4a,
  0x9d, 0x2f, 0x43, 0xb2, 0xb4, 0x41, 0xae, 0x28, 0xf7, 0x8e, 0x81, 0x76,
  0x36, 0xa6, 0x94, 0x11, 0x2b, 0xe3, 0xc9, 0x25, 0xaf, 0x81, 0xd5, 0x8b,
  0x5b, 0xd7, 0x21, 0x91, 0x26, 0xc2, 0x48, 0xe4, 0xc4, 0xd5, 0xb7, 0xc8,
  0xb2, 0x99, 0x0d, 0xf6, 0x90, 0x47, 0xd2, 0x13, 0x1a, 0x1c, 0xbc, 0x50,
  0x3a, 0x1e, 0x03, 0x5d, 0xd9, 0xb2, 0xe5, 0x33, 0x34, 0xcd, 0xda, 0x81,
  0x17, 0xff, 0xc6, 0x15, 0xfa, 0xfe, 0x4c, 0xde, 0x1f, 0xe2, 0xc8, 0x3c,
  0xee, 0xbb, 0x24, 0xe8, 0x42, 0x3a, 0x81, 0xd8, 0x35, 0xe1, 0x23, 0x3f,
  0x83, 0xb7, 0x19, 0xfd, 0x12, 0x28, 0x01, 0xfb, 0x25, 0xa9, 0x40, 0xd3,
  0x5b, 0x42, 0x24, 0x33, 0x4a, 0x3c, 0x1d, 0x7f, 0x15, 0xb8, 0x09, 0x48,
  0xed, 0xd1, 0xdb, 0xf6, 0x33, 0x53, 0xd5, 0x45, 0xc2, 0xc4, 0x31, 0x8e,
  0xe8, 0x38, 0x67, 0x81, 0xd2, 0x15, 0x9f, 0xe5, 0x97, 0x28, 0xbe, 0xc9,
  0x33, 0xed, 0x8e, 0xe9, 0xed, 0x8a, 0xcb, 0xbd, 0xd0, 0x3e, 0xfb, 0x5d,
  0x22, 0x06, 0xbb, 0x0a, 0xf2, 0x3a, 0x3c, 0xe4, 0x81, 0x56, 0xc9, 0x01,
  0x3a, 0xdb, 0xe2, 0xd7, 0x67, 0xab, 0x02, 0xc6, 0x21, 0x54, 0x09, 0xc7,
  0xc8, 0x74, 0x9f, 0x08, 0x11, 0x11, 0x74, 0xc3, 0x7c, 0x52, 0xc2, 0x29,
  0x82, 0x12, 0x29, 0xb1, 0x96, 0x89, 0x9b, 0xc4, 0xa4, 0x9a, 0x81, 0x9a,
  0xbf, 0x73, 0xe1, 0xdd, 0x47, 0x78, 0x21, 0x9c, 0x09, 0xd4, 0x78, 0x2f,
  0x4b, 0x2c, 0x3f, 0x45, 0x62, 0x69, 0xe8, 0xd5, 0x2e, 0x19, 0xe0, 0x2a,
  0x34, 0x03, 0xd1, 0x81, 0x23, 0x23, 0x25, 0xca, 0xfc, 0xd4, 0xf7, 0x2d,
  0xe3, 0xbe, 0x6b, 0xd4, 0x42, 0x0b, 0x26, 0x2f, 0x3d, 0x17, 0xf2, 0x70,
  0x06, 0x17, 0xc0, 0xb4, 0x36, 0xa2, 0x35, 0xa0, 0x12, 0x21, 0xaf, 0x7f,
  0xbd, 0x27, 0x23, 0xbf, 0x41, 0x04, 0x10, 0xe0, 0x5d, 0x9c, 0x9e, 0x7c,
  0x0a, 0x30, 0x2f, 0xf9, 0x9b, 0x81, 0x60, 0xd5, 0x58, 0x8c, 0x78, 0x04,
  0x10, 0x2c, 0x81, 0xef, 0xdb, 0x14, 0xb3, 0x17, 0xf5, 0x10, 0x0b, 0x2a,
  0xd4, 0x3f, 0xc1, 0xbc, 0x40, 0xcd, 0x58, 0x8a, 0xeb, 0x4d, 0x50, 0x43,
  0x8c, 0x67, 0x04, 0xd9, 0x81, 0xd0, 0xb3, 0xff, 0x28, 0xc1, 0x46, 0xd1,
  0xf9, 0xd3, 0xd9, 0x0c, 0xf9, 0x08, 0xc8, 0xb7, 0xb3, 0x7f, 0x89, 0xe3,
  0x88, 0xf8, 0x89, 0xc1, 0xbf, 0x51, 0xc2, 0x1a, 0x2d, 0x03, 0xc8, 0xdb,
  0x87, 0x05, 0x00, 0x06, 0x64, 0x40, 0xca, 0x12, 0x2e, 0xb6, 0x11, 0x43,
  0x62, 0xb2, 0x42, 0x5a, 0x57, 0x2b, 0xc5, 0xd1, 0xf3, 0x0e, 0x7f, 0xef,
  0xed, 0x56, 0xbe, 0xaf, 0x5c, 0x22, 0xc1, 0x3d, 0xe0, 0xed, 0xee, 0x1e,
  0xe0, 0xcd, 0xfe, 0x2e, 0xed, 0xce, 0x3d, 0xd2, 0x34, 0x81, 0x33, 0x0b,
  0xc3, 0xc4, 0xfe, 0xef, 0x0c, 0x04, 0xd6, 0xd4, 0x92, 0xb3, 0xff, 0xff,
  0x04, 0x00, 0x00, 0x00, 0x40, 0x00, 0x00, 0x00, 0x66, 0xeb, 0xff, 0xff,
  0xe2, 0x18, 0x00, 0x00, 0xc5, 0x1d, 0x00, 0x00, 0xb9, 0x00, 0x00, 0x00,
  0x25, 0x07, 0x00, 0x00, 0x18, 0xf9, 0xff, 0xff, 0x3a, 0x0e, 0x00, 0x00,
  0xab, 0x07, 0x00, 0x00, 0x20, 0x22, 0x00, 0x00, 0x5a, 0xea, 0xff, 0xff,
  0x1f, 0xfa, 0xff, 0xff, 0x7b, 0x18, 0x00, 0x00, 0x88, 0x01, 0x00, 0x00,
  0xda, 0x18, 0x00, 0x00, 0x0c, 0xeb, 0xff, 0xff, 0xa6, 0x0d, 0x00, 0x00,
  0xde, 0xb3, 0xff, 0xff, 0x04, 0x00, 0x00, 0x00, 0x00, 0x12, 0x00, 0x00,
  0xe1, 0xb5, 0xfd, 0xb1, 0xad, 0x32, 0xb8, 0xd1, 0xef, 0xcf, 0xee, 0xe4,
  0xde, 0x10, 0x1c, 0xbe, 0xdc, 0xda, 0xd5, 0x04, 0x18, 0x40, 0x43, 0xfb,
  0x2b, 0x04, 0xd3, 0xf3, 0xd3, 0xf3, 0x43, 0x00, 0x0f, 0xef, 0x38, 0x53,
  0x4b, 0xe7, 0x1d, 0xf8, 0x44, 0x37, 0x05, 0x02, 0x1c, 0x19, 0x1e, 0xf3,
  0x24, 0xb4, 0xe7, 0xcb, 0x10, 0x99, 0xc7, 0xe6, 0xcf, 0xe0, 0xb0, 0xc2,
  0xda, 0xd4, 0xe0, 0xce, 0x14, 0x24, 0xe8, 0x23, 0xce, 0xdd, 0x1f, 0x22,
  0xe3, 0x11, 0x1d, 0xee, 0x28, 0xee, 0xd8, 0x0e, 0xf7, 0x04, 0x09, 0xfa,
  0x2b, 0x7f, 0x18, 0xe7, 0x2d, 0x06, 0x42, 0xfc, 0xec, 0x29, 0x3d, 0x21,
  0xd1, 0xf8, 0x0e, 0xaa, 0x9d, 0xe4, 0xf5, 0xd3, 0xec, 0xe6, 0xd2, 0xdd,
  0x2a, 0xa6, 0xd2, 0xcf, 0xdc, 0xe7, 0x00, 0x29, 0x39, 0x2d, 0xed, 0x3e,
  0x09, 0xc8, 0xf9, 0x08, 0x14, 0xc7, 0xe0, 0x03, 0xe4, 0xfc, 0x2a, 0x05,
  0x24, 0xe1, 0x4f, 0x0b, 0x27, 0xe5, 0xc7, 0x27, 0x20, 0xeb, 0x25, 0x36,
  0x32, 0xfa, 0xba, 0xff, 0x12, 0x0a, 0x37, 0x0b, 0xdd, 0x17, 0xb1, 0xb4,
  0xc1, 0xbc, 0xdb, 0x27, 0x20, 0x48, 0x3f, 0x37, 0x1b, 0xfc, 0xa2, 0xe7,
  0x08, 0x2b, 0xcc, 0x10, 0xab, 0xc1, 0xd9, 0xb8, 0xfd, 0x0b, 0x6e, 0xf5,
  0x06, 0xe4, 0x4b, 0x67, 0x39, 0x0a, 0x89, 0x6d, 0x0a, 0x15, 0x36, 0x1c,
  0xf8, 0xf6, 0xd3, 0xee, 0x61, 0xed, 0x01, 0x29, 0xed, 0x4e, 0xe5, 0xb6,
  0x03, 0xd5, 0x24, 0xeb, 0xe1, 0xcb, 0x12, 0xcf, 0xb0, 0x81, 0x0b, 0xb8,
  0x1a, 0xbb, 0x0c, 0x0c, 0xc1, 0xd7, 0xf3, 0xb9, 0x20, 0xc2, 0xe4, 0x85,
  0xfc, 0x8d, 0x1b, 0xbe, 0x47, 0x1c, 0xd7, 0x61, 0x17, 0x22, 0xc9, 0x1b,
  0xba, 0x08, 0x0f, 0xce, 0x2b, 0x4c, 0xd1, 0x06, 0xc2, 0xf8, 0x31, 0xbd,
  0xbe, 0xaa, 0xd1, 0xdc, 0xe3, 0x01, 0x66, 0x09, 0x16, 0x05, 0x23, 0xfe,
  0xcf, 0x07, 0x30, 0x0a, 0x43, 0x46, 0xe1, 0xf1, 0xd1, 0xee, 0x3c, 0x27,
  0x00, 0x51, 0x9a, 0x64, 0xdb, 0xf4, 0xf2, 0x02, 0xda, 0xd2, 0xd8, 0x22,
  0x3b, 0xd6, 0x36, 0x4a, 0x0f, 0x27, 0x32, 0x0e, 0x4d, 0x22, 0x27, 0x3e,
  0x6f, 0xef, 0xc6, 0xef, 0x2b, 0x38, 0xf0, 0x08, 0xd8, 0xf4, 0x0f, 0xd5,
  0x16, 0xfc, 0x02, 0x2b, 0x0c, 0x27, 0x0c, 0x1d, 0x1c, 0x01, 0xd6, 0xf2,
  0x81, 0x24, 0x0f, 0xd0, 0xf0, 0x15, 0x0b, 0x11, 0xe0, 0x07, 0xee, 0x2b,
  0x11, 0x14, 0xea, 0x44, 0x35, 0xb5, 0x02, 0x92, 0x1d, 0xfc, 0x22, 0x1b,
  0x33, 0x43, 0x36, 0xbf, 0x06, 0xcd, 0xd2, 0x39, 0xdf, 0xd3, 0x22, 0xe7,
  0xd3, 0xe3, 0x37, 0xe7, 0x32, 0xce, 0x06, 0xfc, 0x2c, 0xf0, 0x19, 0xbd,
  0xfc, 0x27, 0x04, 0x2e, 0x0c, 0x11, 0xac, 0xf4, 0xd2, 0x34, 0x1b, 0xf7,
  0xea, 0x27, 0x01, 0x0f, 0xf6, 0x9e, 0xf8, 0xeb, 0x1a, 0x16, 0x08, 0x08,
  0x9b, 0xd7, 0xf8, 0x49, 0xfc, 0xc1, 0xe4, 0xee, 0xd0, 0xa8, 0x1c, 0x29,
  0x06, 0xef, 0x0a, 0xe5, 0x39, 0xfd, 0xc8, 0x21, 0x27, 0xab, 0xff, 0xe1,
  0x8c, 0x2f, 0xc8, 0x35, 0x30, 0xed, 0xd7, 0xfd, 0xcf, 0xcd, 0x25, 0xdd,
  0x2a, 0xc4, 0xfb, 0x6c, 0xf3, 0xdf, 0xd7, 0x93, 0x34, 0x20, 0xa9, 0xfa,
  0x7f, 0xe3, 0xc9, 0x27, 0x2d, 0x01, 0x03, 0xd1, 0xd4, 0x12, 0xbe, 0xdf,
  0x05, 0xd5, 0x13, 0xf3, 0xf5, 0xe0, 0xd2, 0xe1, 0xdc, 0xd4, 0xef, 0x02,
  0xf9, 0x28, 0x2b, 0xda, 0xe6, 0x06, 0x11, 0x30, 0xc5, 0x22, 0x26, 0x2c,
  0x3c, 0x1d, 0xfa, 0x01, 0x50, 0x22, 0x66, 0x34, 0xd6, 0xbc, 0x6a, 0x06,
  0x0a, 0x1e, 0x12, 0x02, 0xe8, 0xb3, 0x0e, 0x34, 0xa3, 0xf9, 0x3a, 0x2e,
  0xf2, 0xdb, 0x14, 0xb6, 0xc6, 0x4a, 0xeb, 0xba, 0xe9, 0xff, 0xea, 0xf2,
  0xc0, 0x71, 0xdd, 0x05, 0xd0, 0x37, 0xcc, 0x02, 0xed, 0x17, 0x22, 0xbc,
  0xf5, 0xed, 0xb2, 0x6f, 0x54, 0xa9, 0xf3, 0xa7, 0xe2, 0x35, 0x5e, 0x52,
  0xd3, 0x29, 0xf2, 0x4e, 0xd3, 0xeb, 0xf8, 0x5b, 0xef, 0xe5, 0xef, 0xec,
  0xe9, 0xed, 0xdf, 0x3d, 0xcd, 0xf4, 0x04, 0xab, 0xe8, 0xf7, 0x26, 0x2c,
  0x12, 0x46, 0xc3, 0xd4, 0xf2, 0x08, 0xc6, 0x08, 0x28, 0xeb, 0xfa, 0xc5,
  0x04, 0x52, 0x3b, 0x59, 0x09, 0x1b, 0x37, 0x4e, 0x3d, 0xef, 0x2c, 0x29,
  0xf1, 0x70, 0xde, 0x35, 0x1e, 0x07, 0x24, 0x06, 0xee, 0xdd, 0x28, 0x1c,
  0x38, 0x18, 0x31, 0x64, 0xd4, 0xdb, 0xe1, 0xfb, 0xdf, 0x23, 0xe0, 0xfd,
  0xb7, 0x11, 0xc9, 0xfa, 0xc8, 0xf6, 0xc5, 0xca, 0x7f, 0x2f, 0xda, 0xbe,
  0x28, 0x21, 0x00, 0x3c, 0xb4, 0x66, 0x78, 0x0c, 0x30, 0xd0, 0x3f, 0x49,
  0x07, 0x38, 0x15, 0x02, 0xc7, 0xc6, 0xb6, 0x05, 0x09, 0x1c, 0x0b, 0x24,
  0x1c, 0x03, 0xc3, 0xc3, 0x26, 0x11, 0x5a, 0x47, 0xf5, 0x1a, 0x23, 0xff,
  0xee, 0x29, 0xf9, 0xc6, 0xc6, 0xc1, 0x12, 0x09, 0xe0, 0xe5, 0xd4, 0x9f,
  0xe7, 0x56, 0x1a, 0x04, 0x1f, 0xc1, 0x3a, 0x12, 0x56, 0xde, 0x27, 0x2b,
  0x34, 0x4d, 0x14, 0xf5, 0xea, 0x23, 0xe4, 0xe7, 0x59, 0xd0, 0x0b, 0x2c,
  0x0a, 0x45, 0xbc, 0xf2, 0x01, 0xfb, 0x09, 0x16, 0x12, 0xea, 0xb1, 0x19,
  0x02, 0xaf, 0x18, 0xd1, 0xdc, 0xe6, 0xc0, 0x0e, 0x46, 0xca, 0xf2, 0xb7,
  0xde, 0x1a, 0xad, 0x07, 0xfc, 0xd9, 0xbe, 0x18, 0x22, 0x1a, 0x9b, 0xa6,
  0xfb, 0xd6, 0xca, 0xed, 0xfd, 0x30, 0xe4, 0xf4, 0x5d, 0xe4, 0x1f, 0x11,
  0x5c, 0x15, 0xef, 0xcd, 0x49, 0xd0, 0x61, 0xeb, 0x27, 0x18, 0xd5, 0x32,
  0x22, 0xfa, 0x4a, 0x09, 0x04, 0x16, 0x4e, 0x3e, 0x5b, 0x3d, 0x30, 0xfb,
  0x2b, 0xe2, 0xe0, 0xe6, 0xe2, 0xeb, 0x10, 0xff, 0xee, 0xff, 0xf3, 0xc1,
  0x1a, 0xc6, 0x02, 0x0d, 0xcc, 0x0d, 0x09, 0xe5, 0xfe, 0x0b, 0x08, 0xef,
  0xec, 0xdf, 0x0b, 0xf4, 0x0b, 0x15, 0x16, 0x25, 0x33, 0x2a, 0x51, 0x18,
  0xe6, 0x2c, 0xfe, 0x54, 0xd9, 0x0d, 0x75, 0xd5, 0xc0, 0xec, 0xff, 0x08,
  0xee, 0x24, 0xe8, 0xe1, 0x23, 0x2b, 0xd1, 0xd1, 0xb1, 0xd6, 0xb7, 0xd7,
  0x28, 0x28, 0xfa, 0x23, 0x2b, 0xdb, 0x81, 0xd6, 0x4a, 0x2d, 0x7e, 0x3b,
  0x07, 0x11, 0x41, 0x40, 0xe7, 0xf3, 0xfa, 0xe0, 0x30, 0x58, 0x41, 0x0a,
  0x24, 0xf4, 0x42, 0x5d, 0x22, 0xef, 0xb4, 0xf6, 0x2c, 0x63, 0xec, 0x08,
  0x27, 0xfa, 0x06, 0xcb, 0x4d, 0x01, 0x1c, 0xfd, 0xcb, 0x18, 0x44, 0x0a,
  0xfe, 0xff, 0x04, 0x28, 0x14, 0x03, 0xbb, 0x1c, 0xe4, 0x31, 0x22, 0x51,
  0x12, 0x3d, 0x16, 0x02, 0xe1, 0xf1, 0x1b, 0xe5, 0x02, 0xe1, 0x08, 0x1c,
  0x00, 0xfe, 0x28, 0xbc, 0x35, 0x1b, 0xa9, 0x37, 0xd4, 0xe0, 0xee, 0xfb,
  0xf5, 0x1b, 0x13, 0xe6, 0xdc, 0x05, 0x2b, 0xbd, 0xd6, 0xea, 0x3e, 0xdb,
  0x09, 0x0c, 0x23, 0x20, 0x19, 0xee, 0xc4, 0x1d, 0xf8, 0x0a, 0xf3, 0xe7,
  0xeb, 0xf1, 0x2a, 0xfc, 0x1d, 0xbe, 0xb7, 0x43, 0xda, 0xe6, 0x67, 0x6d,
  0xf7, 0x0e, 0x24, 0xda, 0x1e, 0xcb, 0x26, 0x00, 0x08, 0x0c, 0x0e, 0x24,
  0xc6, 0xdc, 0xa9, 0x54, 0x7e, 0xec, 0x2c, 0x35, 0xd0, 0xda, 0x14, 0xfa,
  0xf5, 0xac, 0x34, 0x22, 0x1d, 0x48, 0xac, 0xb5, 0x66, 0xd4, 0x2d, 0xef,
  0x2f, 0x2c, 0xe9, 0x24, 0x0f, 0xef, 0x37, 0x27, 0xda, 0x5c, 0xe7, 0x7f,
  0x2a, 0xa3, 0x2e, 0xe6, 0x5b, 0x11, 0x25, 0x6b, 0x01, 0x13, 0x08, 0x37,
  0xbe, 0x37, 0x70, 0x3f, 0x44, 0xfb, 0xee, 0x7f, 0xdf, 0x21, 0x1c, 0x2b,
  0x1e, 0xf5, 0xb5, 0x0c, 0xfb, 0x19, 0xb1, 0xee, 0xf3, 0x29, 0x52, 0x1d,
  0xce, 0x0d, 0x38, 0x17, 0x21, 0x10, 0xaf, 0x03, 0x07, 0xfa, 0xc8, 0x56,
  0x02, 0x2b, 0xa1, 0xf8, 0xdb, 0xfa, 0xc8, 0xdc, 0x20, 0xfe, 0x51, 0x41,
  0x10, 0x59, 0x5f, 0x26, 0x15, 0xb9, 0x3b, 0x1c, 0x0a, 0xb0, 0x5b, 0x17,
  0x2b, 0x0f, 0x19, 0x3d, 0x1a, 0x22, 0xc1, 0x2c, 0xf1, 0x44, 0xca, 0x30,
  0xa2, 0xe0, 0xe8, 0x09, 0x3b, 0x03, 0xd1, 0xfd, 0xee, 0xfa, 0xb2, 0xf5,
  0x99, 0x21, 0xd1, 0xc0, 0x23, 0xd2, 0xc4, 0xb2, 0x60, 0x16, 0xf3, 0x17,
  0x33, 0x55, 0x56, 0x07, 0x5c, 0x2a, 0x24, 0xea, 0x54, 0x40, 0xe6, 0xf4,
  0x34, 0x01, 0xcf, 0xb8, 0x27, 0x30, 0x91, 0x9f, 0x30, 0xd4, 0x2f, 0xe4,
  0xec, 0x44, 0x3b, 0xb8, 0x07, 0xcd, 0x29, 0x22, 0x39, 0x08, 0x00, 0xef,
  0xbd, 0x3c, 0xd4, 0xcf, 0xe4, 0xe5, 0x2b, 0xa3, 0x2f, 0x16, 0x0b, 0x8e,
  0xcb, 0xaf, 0xcf, 0xc0, 0xf9, 0x07, 0x17, 0xd1, 0xe9, 0x12, 0x96, 0x08,
  0xe3, 0xee, 0xe4, 0x0b, 0x05, 0xf4, 0xce, 0x17, 0xd7, 0xd5, 0xce, 0xd3,
  0xc1, 0x0f, 0xe5, 0xd2, 0x15, 0x0d, 0x02, 0xe3, 0xd6, 0xac, 0xb7, 0xd4,
  0xda, 0xe9, 0x03, 0xb9, 0x04, 0xcf, 0xca, 0xc4, 0xeb, 0xff, 0x1f, 0xc4,
  0xcf, 0xea, 0xec, 0x3a, 0x19, 0x32, 0x4e, 0x08, 0xd4, 0xfe, 0x19, 0x21,
  0x25, 0x2e, 0xc9, 0x18, 0xd7, 0xfe, 0x30, 0x43, 0xa9, 0x18, 0xd6, 0x1e,
  0xa5, 0x0a, 0xe6, 0xaf, 0xdc, 0x2b, 0x23, 0xba, 0xf9, 0x2b, 0xc9, 0x1a,
  0x1b, 0x7f, 0xfa, 0x4e, 0xf4, 0x58, 0x04, 0xe7, 0xed, 0xfa, 0x18, 0xdb,
  0xdf, 0x31, 0xf6, 0x28, 0xee, 0xdc, 0x45, 0xd6, 0x03, 0xcf, 0x0b, 0x1b,
  0x0f, 0x34, 0xf5, 0x05, 0xb4, 0xde, 0x15, 0x26, 0x1a, 0x05, 0xf7, 0xd5,
  0xfc, 0x1a, 0xea, 0x2f, 0xa4, 0x51, 0xfd, 0x35, 0x37, 0xff, 0xdb, 0x09,
  0xe1, 0x19, 0xfe, 0x0f, 0xd9, 0x21, 0x0c, 0xdd, 0x59, 0xd8, 0x1a, 0xd2,
  0x11, 0x1d, 0xfe, 0x2c, 0x41, 0xec, 0xeb, 0xe7, 0x31, 0xf2, 0x17, 0x07,
  0xe4, 0x08, 0x2d, 0xef, 0xeb, 0xfc, 0x28, 0x0d, 0xdb, 0x44, 0x2a, 0xd7,
  0x4d, 0x20, 0x38, 0xcd, 0xf9, 0xe4, 0x34, 0xe2, 0xe2, 0xe7, 0x55, 0xda,
  0xe2, 0x37, 0x23, 0x7f, 0x28, 0x0d, 0x31, 0xe5, 0x22, 0x14, 0x06, 0x09,
  0x29, 0x07, 0xd9, 0xe0, 0x07, 0xfd, 0xfb, 0x2d, 0xde, 0x16, 0xe5, 0xe8,
  0xfe, 0x3e, 0xe6, 0x07, 0xbe, 0x52, 0xff, 0x09, 0x48, 0x47, 0xc2, 0x06,
  0x2e, 0x20, 0x0b, 0xfc, 0x23, 0xdd, 0x1f, 0xb7, 0xdd, 0xc6, 0xf7, 0x20,
  0xe4, 0x16, 0x24, 0xc8, 0xde, 0x24, 0x2d, 0xee, 0x3b, 0x95, 0xe5, 0xe7,
  0xde, 0x1d, 0x19, 0x31, 0xe4, 0x1f, 0x16, 0xed, 0x36, 0xee, 0x3c, 0x00,
  0x3b, 0x39, 0x07, 0x1e, 0x26, 0x48, 0xd7, 0x22, 0x0b, 0x47, 0xee, 0x08,
  0x11, 0x37, 0x43, 0x06, 0xf0, 0x15, 0x09, 0x03, 0xd1, 0x9e, 0xf3, 0x17,
  0xf7, 0x13, 0x1b, 0xe2, 0xe2, 0xcd, 0xe8, 0x29, 0x07, 0xbb, 0x04, 0x15,
  0xd4, 0xfa, 0xc6, 0x13, 0x00, 0x34, 0x13, 0xc8, 0xea, 0xed, 0xf2, 0xe9,
  0x7f, 0x38, 0xdc, 0x00, 0xe3, 0xfe, 0xe8, 0xd0, 0xee, 0xe0, 0xe9, 0xf9,
  0x1f, 0xe2, 0x1d, 0x06, 0xf2, 0x15, 0xe9, 0x03, 0xda, 0xf1, 0xe9, 0xc5,
  0xca, 0xd6, 0xef, 0xeb, 0xc4, 0x08, 0xda, 0xf7, 0x15, 0xd9, 0x22, 0xf7,
  0x27, 0xd4, 0xdd, 0x20, 0x07, 0x0e, 0x20, 0x1a, 0x03, 0xee, 0x4c, 0xf9,
  0xb6, 0x18, 0xd0, 0x31, 0x00, 0x0d, 0xf1, 0x35, 0xc0, 0x1d, 0x32, 0xd9,
  0xf1, 0xd8, 0xe0, 0xde, 0x12, 0xee, 0xf0, 0x0c, 0x2e, 0xbd, 0xf6, 0x09,
  0xd9, 0xe8, 0x12, 0xe4, 0xe1, 0xe0, 0x16, 0xe6, 0x07, 0x14, 0x0e, 0xc3,
  0xe1, 0x22, 0x2e, 0xda, 0x38, 0xf9, 0xf1, 0xe8, 0xf2, 0xfd, 0x17, 0x19,
  0xce, 0x16, 0xff, 0x35, 0x1b, 0x1e, 0xe5, 0xdd, 0xbc, 0x01, 0x0e, 0x1e,
  0xe0, 0x24, 0x21, 0xe6, 0xca, 0x42, 0x21, 0x02, 0xd8, 0xb7, 0x03, 0xbb,
  0x02, 0xde, 0x07, 0x20, 0x11, 0xcf, 0x0f, 0xdd, 0x04, 0xc4, 0x0d, 0x14,
  0x23, 0xf8, 0xf3, 0xc4, 0xcd, 0x1c, 0x2a, 0x3d, 0xc0, 0xce, 0x1a, 0xbe,
  0xd3, 0xfc, 0x3c, 0x00, 0x0a, 0xff, 0x2b, 0x11, 0x28, 0x32, 0xe5, 0x4c,
  0xf1, 0xf3, 0x36, 0x46, 0x7f, 0xe5, 0xbb, 0xf1, 0x07, 0x29, 0x10, 0xe3,
  0xd5, 0xee, 0xdf, 0x20, 0x52, 0xcc, 0x37, 0x52, 0x24, 0x43, 0xde, 0x2d,
  0x05, 0x53, 0xe6, 0x9a, 0x3a, 0x22, 0x14, 0x22, 0x0b, 0x19, 0x29, 0x26,
  0x3d, 0xac, 0xf7, 0x09, 0xd3, 0x09, 0xf4, 0x0d, 0xb4, 0xe1, 0x09, 0xfc,
  0x3d, 0x11, 0xe6, 0x04, 0xd4, 0x0e, 0x23, 0x18, 0x0c, 0x50, 0x43, 0x32,
  0xf0, 0xc8, 0xda, 0x29, 0x38, 0x28, 0xac, 0xdc, 0xc1, 0xf9, 0xf3, 0x47,
  0x1b, 0xdd, 0xa8, 0xb7, 0xde, 0xe3, 0xe6, 0x22, 0xe4, 0xf7, 0x4d, 0xbe,
  0x29, 0xa1, 0x19, 0xc0, 0xfd, 0x34, 0xc1, 0x3a, 0x09, 0x09, 0x0d, 0x50,
  0xf8, 0x12, 0x23, 0x14, 0xa2, 0x60, 0xcd, 0xe7, 0xef, 0xe7, 0x14, 0xeb,
  0x02, 0x02, 0xd9, 0x02, 0x1e, 0x15, 0x1b, 0xe7, 0xde, 0xe0, 0xca, 0x2d,
  0xe5, 0x1a, 0x0f, 0xee, 0x2c, 0x1b, 0x34, 0x1f, 0xf3, 0xd4, 0xd2, 0x40,
  0xb5, 0xfe, 0xe6, 0x54, 0x1a, 0x00, 0x24, 0xfd, 0xbc, 0xff, 0x37, 0x16,
  0xc1, 0xe8, 0x06, 0x06, 0x24, 0x02, 0xdf, 0xf8, 0x17, 0xd0, 0x0c, 0x0a,
  0x26, 0x4c, 0x1b, 0x26, 0xf6, 0x0f, 0xfb, 0x02, 0xf8, 0xf1, 0x16, 0xf3,
  0x29, 0xf1, 0xc8, 0xff, 0xd9, 0x00, 0x29, 0x23, 0xf4, 0x18, 0x81, 0xd5,
  0x07, 0x1e, 0x51, 0x40, 0xde, 0xd3, 0xb0, 0x12, 0xf1, 0xb9, 0xdb, 0x04,
  0x02, 0x04, 0xd5, 0xe5, 0xec, 0x95, 0xeb, 0x97, 0x04, 0x25, 0x04, 0xcd,
  0x2d, 0xd4, 0xe3, 0x23, 0xbc, 0xf0, 0x32, 0xc1, 0xc7, 0xe9, 0xf2, 0x2f,
  0x04, 0xdd, 0x3b, 0x12, 0x9f, 0xe6, 0xec, 0x1e, 0xf6, 0x2a, 0x2c, 0xa9,
  0xa2, 0x20, 0x1e, 0x06, 0xfe, 0x3a, 0x3e, 0xb7, 0xcb, 0xf1, 0xb5, 0xd7,
  0xe5, 0x02, 0xd8, 0xd1, 0x42, 0xe4, 0x2b, 0xd8, 0xfd, 0x31, 0xd9, 0xfe,
  0xf8, 0xfa, 0x01, 0xe8, 0xd4, 0x06, 0xfa, 0xe3, 0x04, 0xcf, 0x26, 0xe1,
  0x15, 0x3b, 0x33, 0x13, 0xc8, 0xe9, 0xc6, 0x7f, 0x3c, 0xd4, 0x08, 0x2a,
  0xfb, 0xea, 0xff, 0x03, 0xd5, 0x36, 0x33, 0xee, 0xa6, 0xf3, 0x1c, 0xfd,
  0xf4, 0x2b, 0xbc, 0xe6, 0x29, 0xdc, 0xf0, 0xef, 0x3d, 0x18, 0xe7, 0xe4,
  0xff, 0x36, 0xf0, 0xcc, 0xfd, 0x35, 0x8a, 0xf7, 0xd9, 0xd6, 0xdb, 0xd0,
  0xf1, 0xbf, 0x5a, 0xe1, 0xcb, 0x20, 0xf9, 0xdb, 0x0d, 0xe6, 0xdb, 0xee,
  0x1b, 0x59, 0x33, 0xfe, 0xca, 0x23, 0x98, 0xe3, 0xbe, 0xc8, 0xab, 0xca,
  0xb1, 0xbb, 0xef, 0xe1, 0xe8, 0x0c, 0x30, 0x02, 0xce, 0x0d, 0xfd, 0xb8,
  0x0b, 0xe8, 0x17, 0xfb, 0xd8, 0x16, 0x1d, 0x20, 0x11, 0xff, 0x10, 0xc9,
  0xf1, 0x28, 0x37, 0xb5, 0xcf, 0xf5, 0xba, 0xdc, 0xc5, 0x19, 0x42, 0x18,
  0xa7, 0xfe, 0xe1, 0x16, 0xb3, 0x27, 0xdc, 0xf7, 0x04, 0xc9, 0x18, 0xe1,
  0x11, 0x0a, 0xb9, 0xee, 0xe4, 0xf5, 0xb6, 0xdc, 0xcb, 0x29, 0xfe, 0x2a,
  0x02, 0x22, 0x30, 0x06, 0xc4, 0x1f, 0xe0, 0xce, 0xfc, 0xfd, 0xd0, 0xc0,
  0xde, 0xc8, 0xe6, 0xa0, 0xef, 0xbb, 0x2f, 0x04, 0x32, 0xe3, 0x0f, 0xf1,
  0x38, 0x2c, 0xc0, 0xf6, 0x1b, 0xbd, 0xf6, 0x15, 0xc8, 0x54, 0xcf, 0x0c,
  0x16, 0xd1, 0xf9, 0xaf, 0xb8, 0x8b, 0x00, 0xf2, 0x00, 0xcd, 0xfb, 0xd2,
  0xd1, 0x0f, 0xb0, 0x15, 0xfd, 0x10, 0x65, 0xd1, 0xf8, 0xac, 0x30, 0x0a,
  0x07, 0x1f, 0xa9, 0x25, 0xfc, 0xca, 0xf9, 0xa1, 0x0f, 0x2b, 0xee, 0x16,
  0xe2, 0x10, 0x50, 0xc0, 0x9b, 0xe2, 0xce, 0xb6, 0x4f, 0xc9, 0x8a, 0x16,
  0xd2, 0x07, 0x95, 0xca, 0xb8, 0xb3, 0x04, 0xe8, 0x25, 0x17, 0xc9, 0x24,
  0x7f, 0x64, 0x37, 0x3f, 0x5e, 0x93, 0xc4, 0x58, 0xcb, 0x5d, 0x07, 0x0c,
  0x02, 0xfd, 0xfa, 0xfe, 0x16, 0xe5, 0xf9, 0x03, 0xd4, 0xe3, 0x2c, 0xf9,
  0x2a, 0xe1, 0x23, 0xfe, 0xb3, 0x3a, 0xea, 0xb9, 0xef, 0xbd, 0xb3, 0xe2,
  0x22, 0xf8, 0x25, 0x5e, 0xf8, 0x34, 0x1d, 0xf1, 0xdd, 0x42, 0x2b, 0xd8,
  0xf0, 0xcd, 0xd7, 0x10, 0x2d, 0xe2, 0xe8, 0x43, 0x29, 0x2b, 0xcb, 0x4a,
  0x3e, 0x3b, 0x27, 0x6a, 0xdc, 0x02, 0x03, 0x11, 0x22, 0x2c, 0xc1, 0xfa,
  0x2d, 0x70, 0xcc, 0x17, 0xf7, 0x1d, 0xd9, 0x13, 0x30, 0xe4, 0x45, 0x33,
  0x54, 0xe5, 0xe8, 0x37, 0xeb, 0x21, 0x39, 0x4d, 0x22, 0x14, 0xeb, 0xc9,
  0xbb, 0x0e, 0xe4, 0xe2, 0xc7, 0xfa, 0xf1, 0xe4, 0xf3, 0xfe, 0x23, 0x25,
  0x0e, 0x33, 0x7f, 0x69, 0xce, 0x21, 0x49, 0x23, 0xf0, 0xd4, 0x69, 0x4b,
  0x52, 0x01, 0xb1, 0x0b, 0xe4, 0x06, 0x1c, 0xf3, 0xd1, 0x19, 0x15, 0x27,
  0xe5, 0x33, 0x36, 0xf4, 0xfc, 0x0c, 0xdf, 0xf4, 0x23, 0xbb, 0xc0, 0xea,
  0x01, 0xf3, 0xc9, 0x10, 0xea, 0x02, 0xd4, 0x1a, 0x2e, 0xe2, 0xec, 0xbe,
  0x19, 0x52, 0xe8, 0x07, 0xe8, 0xf6, 0x4a, 0x01, 0xfe, 0xec, 0xc4, 0x21,
  0x28, 0x41, 0x39, 0x30, 0x01, 0x10, 0x18, 0x28, 0x3f, 0x08, 0x2a, 0xd5,
  0x29, 0xfa, 0x20, 0x2d, 0xf2, 0x38, 0x13, 0x35, 0xdf, 0xd6, 0xf8, 0xa0,
  0xea, 0xca, 0x0a, 0xc3, 0x1a, 0xde, 0x31, 0xea, 0xc9, 0xa9, 0xfd, 0xb0,
  0x3a, 0x46, 0xe3, 0x62, 0xc6, 0x00, 0x66, 0xf2, 0x49, 0x25, 0xdd, 0x1e,
  0x4c, 0x7f, 0xc0, 0xfd, 0xc8, 0x09, 0x05, 0xe0, 0x46, 0x20, 0xd4, 0x4a,
  0x0d, 0xf5, 0xf8, 0xd2, 0x28, 0x46, 0xdd, 0xdf, 0xfd, 0xec, 0xc9, 0x0a,
  0x26, 0x43, 0xf6, 0xe8, 0x16, 0x16, 0xec, 0x11, 0x47, 0xf8, 0xdd, 0xd1,
  0x0f, 0xee, 0x50, 0x5f, 0x15, 0x1c, 0x5d, 0x03, 0x2c, 0xf8, 0x3e, 0x18,
  0xf7, 0xc3, 0xe7, 0xef, 0xde, 0xe7, 0x01, 0xfd, 0x28, 0xd2, 0xe9, 0x00,
  0xdf, 0xe7, 0xcc, 0xd6, 0x06, 0x10, 0x05, 0x31, 0xbb, 0xce, 0xa1, 0xe0,
  0x27, 0x11, 0xba, 0xc0, 0x1a, 0xd6, 0xcc, 0xe6, 0x0e, 0xc3, 0x1d, 0xc0,
  0x24, 0xe9, 0xd7, 0x39, 0x56, 0xbc, 0x40, 0xc2, 0x4a, 0xf1, 0x8d, 0x2c,
  0xfd, 0x3b, 0xc6, 0x0a, 0x0c, 0xf2, 0xe3, 0xfb, 0xc7, 0xeb, 0x26, 0x22,
  0xc7, 0xf0, 0xfe, 0xfb, 0xe1, 0x25, 0xf4, 0xe1, 0xf7, 0x9a, 0xad, 0xb9,
  0x63, 0xf6, 0xf5, 0x0c, 0x10, 0x0d, 0xd5, 0xad, 0xe4, 0xc8, 0x34, 0x17,
  0x04, 0xe2, 0x17, 0x04, 0xf0, 0x0c, 0x55, 0x1e, 0x62, 0x21, 0x40, 0x2d,
  0x05, 0xdd, 0x01, 0x24, 0x9d, 0x0e, 0x57, 0x00, 0x08, 0x16, 0x5c, 0x22,
  0x1d, 0x2d, 0xd0, 0x0a, 0xe9, 0xd3, 0xeb, 0xfb, 0xce, 0xbd, 0x2f, 0xdd,
  0x06, 0xba, 0xf5, 0x62, 0x06, 0xf5, 0x2b, 0xca, 0x18, 0x2d, 0x05, 0x0d,
  0xda, 0xee, 0x4d, 0x4c, 0xb2, 0xd0, 0x6a, 0x00, 0xea, 0x09, 0x52, 0xc3,
  0x00, 0x33, 0x06, 0x21, 0x25, 0xdf, 0x56, 0xd1, 0xd4, 0x52, 0xd1, 0xd4,
  0x2e, 0x52, 0x31, 0x9c, 0x1c, 0xf4, 0x3e, 0x34, 0x17, 0xd3, 0xc7, 0xc5,
  0xb2, 0x2e, 0xba, 0xed, 0xd7, 0xf9, 0x0c, 0xfc, 0x15, 0xe0, 0xff, 0xee,
  0x1e, 0x1d, 0x22, 0x3b, 0x81, 0xee, 0x40, 0x3f, 0x54, 0x2d, 0xd3, 0xd0,
  0xf5, 0x1e, 0x4c, 0x24, 0xdd, 0x48, 0xde, 0xa0, 0xfe, 0x18, 0xb4, 0x2e,
  0xf8, 0xde, 0xbc, 0xf1, 0xbe, 0xce, 0xcd, 0xfb, 0xc3, 0x9e, 0x0c, 0x23,
  0x8d, 0x12, 0xfa, 0xbe, 0x0a, 0xc0, 0xaa, 0x09, 0x5f, 0x0d, 0x07, 0xaf,
  0xe3, 0xae, 0xbf, 0x06, 0x2b, 0xbc, 0x9b, 0xcb, 0xbe, 0x24, 0x1f, 0xb2,
  0x03, 0xdd, 0x11, 0xbf, 0x15, 0xc8, 0xb2, 0xdd, 0xc3, 0x02, 0xd6, 0x11,
  0x02, 0xe2, 0xf2, 0x39, 0x3b, 0xc6, 0xc6, 0xe2, 0x3b, 0x10, 0x09, 0xb3,
  0xe0, 0x02, 0xce, 0x0b, 0x1a, 0xf8, 0xd8, 0x10, 0xd0, 0x2f, 0x04, 0x08,
  0xcd, 0xf4, 0x0a, 0xa6, 0x13, 0xd5, 0xe6, 0xa6, 0x11, 0x17, 0x46, 0xb2,
  0x9e, 0x0a, 0x38, 0xf4, 0x1c, 0xd2, 0xd9, 0x12, 0x17, 0x81, 0x15, 0xe1,
  0x5e, 0x27, 0xf5, 0x0d, 0x89, 0x28, 0xb1, 0x15, 0x0f, 0x53, 0x00, 0xe2,
  0xec, 0x4f, 0xde, 0x71, 0x6a, 0xc8, 0xfa, 0x4a, 0xdd, 0x2d, 0x1b, 0x1a,
  0xd6, 0xae, 0xdc, 0xde, 0xbd, 0xe1, 0x01, 0xde, 0xce, 0x37, 0x21, 0x9a,
  0xe5, 0xf8, 0x10, 0x02, 0x30, 0x33, 0xe7, 0xf1, 0x15, 0x1c, 0xdf, 0x2c,
  0xc4, 0x60, 0x0d, 0x06, 0x19, 0x08, 0xfd, 0x20, 0x24, 0x3a, 0x12, 0xb7,
  0xea, 0xde, 0xec, 0x5d, 0x0c, 0xdd, 0xba, 0xf1, 0xf3, 0x43, 0x04, 0x0e,
  0xe5, 0xa6, 0xea, 0x98, 0xbe, 0xda, 0x9d, 0x07, 0xa0, 0xe7, 0xdf, 0xb4,
  0x4f, 0x94, 0x1f, 0xd5, 0xda, 0xe4, 0xbf, 0xd6, 0xca, 0x1e, 0xfc, 0xf8,
  0xd7, 0xc7, 0x19, 0x02, 0x46, 0xa2, 0xf2, 0xe8, 0xe8, 0xe3, 0x43, 0xea,
  0x20, 0xd8, 0x1d, 0xcc, 0xea, 0xc2, 0xe5, 0x00, 0xd1, 0x35, 0xe7, 0x1e,
  0xd9, 0x00, 0xe5, 0x4b, 0x12, 0x25, 0x13, 0x3e, 0xdf, 0x1a, 0xcd, 0x2a,
  0x2d, 0x19, 0x36, 0xe8, 0x00, 0xd4, 0x12, 0xe4, 0xf0, 0x17, 0x26, 0x3b,
  0xb3, 0xc3, 0x32, 0xdf, 0xb8, 0x36, 0xb4, 0x09, 0x00, 0xc8, 0xed, 0xe4,
  0xb2, 0xe7, 0xf0, 0xbc, 0xf6, 0xeb, 0x00, 0xc6, 0xcd, 0x13, 0xd4, 0xbf,
  0xed, 0x1e, 0xc1, 0xff, 0x13, 0xc4, 0x05, 0xed, 0xfb, 0xf1, 0x81, 0xd9,
  0xa3, 0xdc, 0xeb, 0x0c, 0xe7, 0x07, 0xea, 0x18, 0xd1, 0xeb, 0x18, 0x56,
  0xb0, 0x23, 0x3e, 0x15, 0xc4, 0x2b, 0xc8, 0x21, 0x19, 0xe1, 0x42, 0xec,
  0xda, 0xa5, 0xbe, 0x3f, 0xe0, 0xc6, 0x10, 0x28, 0x3c, 0xef, 0xc6, 0xc3,
  0xca, 0xc7, 0x06, 0x4e, 0x0e, 0x00, 0xb8, 0xbf, 0x0d, 0x41, 0xc6, 0x09,
  0x34, 0x09, 0xc4, 0xc5, 0xee, 0xd4, 0x01, 0x20, 0xc6, 0xd6, 0xd2, 0x05,
  0x29, 0xec, 0x1f, 0xb1, 0x08, 0x59, 0xea, 0xf6, 0x12, 0xfa, 0xc8, 0x42,
  0x37, 0xe2, 0x16, 0x43, 0xfd, 0x3f, 0x49, 0x18, 0xb5, 0x1d, 0x36, 0xdd,
  0xff, 0x00, 0x53, 0xff, 0x2c, 0x3d, 0x78, 0xbb, 0xbf, 0x95, 0x06, 0x0b,
  0xae, 0x43, 0xc5, 0xcb, 0xbd, 0xb8, 0xd9, 0x2d, 0xa5, 0x29, 0xe0, 0x07,
  0x5f, 0xfd, 0x22, 0xfb, 0x4b, 0xc2, 0x10, 0xac, 0x4f, 0xe3, 0x23, 0xf8,
  0x38, 0x2e, 0x41, 0xd9, 0xee, 0xff, 0xdb, 0xca, 0x34, 0xc4, 0x1d, 0x1b,
  0xf0, 0x0f, 0xbe, 0x52, 0x68, 0xc9, 0xe8, 0x33, 0x01, 0x1f, 0x7f, 0x67,
  0xee, 0xff, 0x1d, 0x4d, 0x45, 0x18, 0xb7, 0x35, 0xc9, 0xd6, 0x43, 0x61,
  0x98, 0x10, 0x18, 0x70, 0xe5, 0x10, 0x23, 0x1d, 0x20, 0xe0, 0x12, 0xd7,
  0xea, 0x2e, 0x2c, 0xdd, 0xd2, 0x0a, 0x49, 0x25, 0xa1, 0xf2, 0x0f, 0xe6,
  0x17, 0xd4, 0x4a, 0x1d, 0xa5, 0xe9, 0x08, 0x0c, 0xbc, 0x27, 0xad, 0xbe,
  0xcd, 0xb4, 0xbd, 0x35, 0x16, 0xdd, 0x48, 0xbb, 0x23, 0x10, 0xe9, 0xf5,
  0xe1, 0xc9, 0x24, 0xd3, 0x2a, 0xe6, 0xdb, 0x0b, 0x27, 0x1b, 0xc3, 0xc3,
  0xeb, 0x3c, 0xc1, 0xcf, 0xf1, 0xd5, 0xd2, 0xbd, 0x35, 0xf8, 0xda, 0x2e,
  0x2b, 0xef, 0x30, 0xca, 0xd9, 0x14, 0x2d, 0x3d, 0xf0, 0x1a, 0xc9, 0x08,
  0xc6, 0x25, 0x00, 0x08, 0x13, 0xf5, 0x20, 0x99, 0xff, 0xab, 0xd7, 0xe1,
  0xa1, 0x1a, 0xf3, 0x33, 0x30, 0x13, 0xfa, 0x19, 0xd2, 0x3b, 0xdd, 0x10,
  0xeb, 0x44, 0xd1, 0xe5, 0x31, 0xe1, 0xe2, 0xec, 0x26, 0xbc, 0xf6, 0xd4,
  0x08, 0x1d, 0xf8, 0xc7, 0xb7, 0xeb, 0x24, 0xaf, 0x2d, 0x52, 0x81, 0x03,
  0xea, 0xd2, 0xf2, 0x34, 0xca, 0xa8, 0x30, 0x17, 0x0a, 0x2a, 0x01, 0xf4,
  0xd2, 0xd1, 0xdf, 0xf1, 0x24, 0x35, 0xe5, 0xed, 0x2a, 0x14, 0xee, 0x23,
  0x01, 0x20, 0x9f, 0xcf, 0x0b, 0xd8, 0xfe, 0xcc, 0xe1, 0x09, 0xc7, 0xcc,
  0xdd, 0x18, 0x05, 0x42, 0xc2, 0xe2, 0xdd, 0xcb, 0xfc, 0x18, 0x81, 0x26,
  0xd0, 0x58, 0x23, 0xcb, 0xc5, 0xd7, 0x29, 0x07, 0x09, 0xd0, 0x07, 0xe0,
  0x37, 0xf1, 0x1b, 0x02, 0x2f, 0x0a, 0xd6, 0x30, 0xd0, 0xcd, 0x04, 0x0f,
  0x0b, 0xd6, 0xdc, 0xea, 0x10, 0xf0, 0xf5, 0xd1, 0x07, 0xd9, 0xe7, 0xe4,
  0x25, 0xfc, 0x23, 0x21, 0x0d, 0x0f, 0x15, 0xe5, 0x03, 0x0e, 0x29, 0xde,
  0xb4, 0x0f, 0x05, 0x0b, 0xdc, 0x0b, 0x47, 0x1f, 0xad, 0xd5, 0x2b, 0xd7,
  0xf9, 0x00, 0xc3, 0x13, 0x2f, 0xf1, 0x13, 0x0d, 0x3f, 0xf1, 0xf7, 0xfa,
  0x0a, 0x09, 0xdf, 0x28, 0xd2, 0x48, 0xd6, 0xfe, 0x05, 0xee, 0xfd, 0x08,
  0x29, 0x3a, 0x3b, 0xfd, 0x08, 0xfb, 0x3c, 0xc7, 0xe6, 0x01, 0x1f, 0x3f,
  0x09, 0xe4, 0x0a, 0x09, 0xcf, 0xe5, 0xc4, 0xf9, 0xcd, 0xff, 0xd8, 0x0a,
  0xdb, 0x06, 0xe7, 0x19, 0x24, 0xe0, 0x19, 0xe0, 0xdc, 0x0c, 0xe6, 0x01,
  0x31, 0xd7, 0xfd, 0xe5, 0xe2, 0x2f, 0x05, 0x1a, 0xda, 0x27, 0x24, 0x10,
  0xdd, 0xfe, 0xd9, 0x16, 0x7e, 0x22, 0x26, 0x39, 0x11, 0x3f, 0x4f, 0xdc,
  0x43, 0xe6, 0x29, 0xcd, 0x14, 0x4e, 0x0f, 0x2d, 0x02, 0x47, 0x0b, 0x38,
  0x18, 0x0f, 0x43, 0x03, 0x37, 0x56, 0x0e, 0x30, 0xfc, 0x00, 0x0a, 0x4b,
  0xb6, 0xf3, 0x25, 0x26, 0xe8, 0x43, 0x05, 0x1a, 0xd8, 0xf0, 0x08, 0xbf,
  0x45, 0x12, 0xc6, 0x07, 0xc7, 0x12, 0xe5, 0xf5, 0x01, 0xe0, 0x9c, 0x36,
  0x9c, 0x14, 0xad, 0x00, 0x26, 0x21, 0x94, 0xfd, 0x26, 0xfd, 0xf6, 0xee,
  0xca, 0x09, 0x49, 0xe2, 0x0d, 0x3c, 0xbd, 0x0e, 0x12, 0xc9, 0xf0, 0x7a,
  0xee, 0xfe, 0xe3, 0x23, 0x2b, 0xf9, 0x12, 0x28, 0xd2, 0x0f, 0xfd, 0x31,
  0xc0, 0xd9, 0x36, 0xd0, 0xb8, 0x18, 0xe3, 0x10, 0x0e, 0x23, 0xa3, 0x00,
  0xb4, 0xdf, 0x35, 0xc3, 0xfe, 0x31, 0x91, 0xa1, 0x6d, 0x25, 0xde, 0xce,
  0xcf, 0x39, 0x24, 0xfb, 0x81, 0xdf, 0x18, 0xd5, 0x19, 0xcb, 0x1e, 0x3e,
  0x28, 0x14, 0xfb, 0x0f, 0xea, 0x05, 0xd2, 0xda, 0x1c, 0xf8, 0xee, 0xed,
  0x39, 0xfa, 0xc0, 0x01, 0xfd, 0xb7, 0xbd, 0xa9, 0xc1, 0xfb, 0xdc, 0x14,
  0x2b, 0xd0, 0x3f, 0xb1, 0x15, 0x39, 0xc2, 0xd4, 0x31, 0x2a, 0x13, 0xf1,
  0x70, 0x1b, 0xf8, 0xef, 0x3b, 0xa3, 0x1f, 0xf0, 0x14, 0x22, 0x07, 0x7f,
  0x16, 0xca, 0x3e, 0x0b, 0xd2, 0xcf, 0xac, 0x24, 0x50, 0xf2, 0xde, 0xf0,
  0x4c, 0xc5, 0xf4, 0x18, 0x2b, 0xe1, 0xd1, 0x23, 0xcd, 0xc0, 0x04, 0xe2,
  0x20, 0x07, 0xfc, 0xd2, 0xda, 0x19, 0x34, 0x27, 0xf3, 0xdb, 0xf7, 0x2c,
  0xcd, 0xa6, 0xe5, 0xe1, 0xe3, 0x24, 0x1f, 0xf5, 0x2a, 0x21, 0x4e, 0x58,
  0x18, 0xf1, 0x62, 0x32, 0xe7, 0x1f, 0x18, 0xda, 0x0a, 0xf8, 0xee, 0xc7,
  0xd4, 0xd1, 0xdf, 0x10, 0x21, 0xc7, 0x12, 0x06, 0xab, 0x15, 0xa3, 0xca,
  0x2d, 0xca, 0x21, 0x06, 0x16, 0x43, 0xb2, 0x22, 0x23, 0x32, 0x15, 0xed,
  0xe9, 0xe1, 0x0b, 0x02, 0xb2, 0x57, 0x4a, 0xf5, 0xfc, 0x03, 0x35, 0x72,
  0x3e, 0x1e, 0xea, 0x08, 0x5b, 0xdb, 0xd6, 0x38, 0x2d, 0x30, 0xde, 0x4a,
  0x1f, 0xbc, 0xf2, 0xda, 0xcc, 0x4e, 0x18, 0xdc, 0xc2, 0x25, 0xe3, 0xce,
  0xfe, 0xf1, 0x1a, 0xae, 0xd9, 0x07, 0x24, 0x24, 0x35, 0x4a, 0x1f, 0xd9,
  0x1b, 0x4a, 0xe3, 0x2b, 0xde, 0xf8, 0x24, 0xea, 0x0f, 0x36, 0xe0, 0x0c,
  0x0b, 0x04, 0x2b, 0x7f, 0x3c, 0xb9, 0x02, 0x53, 0xc1, 0xe3, 0xe7, 0x66,
  0x39, 0x1d, 0xc6, 0xdc, 0x2b, 0xd7, 0xbf, 0x2c, 0x0f, 0xf1, 0xf6, 0xc9,
  0x04, 0x1c, 0xdf, 0xff, 0x2d, 0xd6, 0x30, 0xf2, 0xc0, 0x16, 0x24, 0xfd,
  0xf7, 0xcb, 0xaa, 0xae, 0xcc, 0x02, 0x05, 0xc0, 0x33, 0xbe, 0x1c, 0xa5,
  0x25, 0xb9, 0xc4, 0xf1, 0x08, 0xdc, 0x09, 0x3e, 0xf3, 0x0b, 0xfe, 0x3b,
  0xe2, 0xbd, 0x28, 0xe6, 0xda, 0x3b, 0xed, 0xf1, 0x13, 0x3b, 0xe8, 0x23,
  0xdb, 0xc1, 0xd1, 0x28, 0x03, 0xeb, 0x4a, 0xd8, 0xf8, 0xbd, 0x23, 0x2a,
  0xee, 0xfb, 0xf6, 0xee, 0xea, 0xea, 0xda, 0xad, 0x20, 0x09, 0xee, 0xef,
  0xb8, 0x40, 0x25, 0xc3, 0x07, 0xfb, 0xbd, 0x13, 0xe2, 0xd0, 0x0f, 0x12,
  0xfd, 0x32, 0xd1, 0x1a, 0x7f, 0x43, 0x1b, 0xdc, 0xdb, 0x26, 0xee, 0xe2,
  0x4a, 0x30, 0x03, 0xf7, 0x33, 0xd4, 0xd2, 0x2f, 0xe8, 0xb5, 0xef, 0xe6,
  0xe0, 0x08, 0x15, 0x09, 0xf5, 0xd7, 0xea, 0xcf, 0x13, 0x0c, 0x03, 0xe9,
  0xe1, 0xe7, 0x0b, 0xde, 0x0e, 0x1f, 0x8f, 0x16, 0xb3, 0x03, 0x34, 0x25,
  0x1d, 0xfe, 0x3e, 0x10, 0xea, 0x00, 0x39, 0xda, 0xf4, 0x13, 0x43, 0x28,
  0x28, 0x09, 0x0d, 0x2b, 0x25, 0xf5, 0xf0, 0xfd, 0xb9, 0x08, 0xf3, 0x33,
  0x30, 0xd6, 0xc6, 0x2a, 0xf6, 0x39, 0xf4, 0x2b, 0x03, 0x12, 0xcc, 0xc1,
  0xb9, 0x8d, 0xf3, 0xdb, 0xbc, 0xe5, 0xe5, 0x09, 0xde, 0x06, 0x09, 0x0a,
  0xe2, 0xdf, 0xd7, 0xf2, 0x36, 0xf8, 0x16, 0xfc, 0x1e, 0xe9, 0x39, 0x42,
  0xdf, 0x13, 0x1d, 0x0e, 0x14, 0xc3, 0xb0, 0x2a, 0xb5, 0xdd, 0xc9, 0x18,
  0xf6, 0x1d, 0xed, 0x31, 0x04, 0xef, 0xd9, 0x19, 0xfc, 0xf6, 0x00, 0xe3,
  0xb0, 0xd5, 0xf8, 0x32, 0x28, 0x18, 0xc0, 0x1c, 0x14, 0xf8, 0xdb, 0xee,
  0xff, 0x1e, 0x5e, 0xf3, 0x2d, 0xf7, 0x14, 0x1a, 0x10, 0x0b, 0x7f, 0x41,
  0xe7, 0x0f, 0x2c, 0xc8, 0xc5, 0xd0, 0xe7, 0xed, 0xf4, 0xe2, 0xe9, 0xcf,
  0xcc, 0x40, 0x0d, 0xec, 0x27, 0x1f, 0xe6, 0x34, 0xe6, 0x10, 0xf0, 0x3f,
  0xd6, 0xba, 0x04, 0xc5, 0xd5, 0xe7, 0xd2, 0xf7, 0x2a, 0x19, 0xf7, 0xcf,
  0x02, 0x14, 0x30, 0x41, 0x10, 0xeb, 0x0a, 0xfa, 0xeb, 0x30, 0x2f, 0xd0,
  0xcf, 0x26, 0xc0, 0xf3, 0x2d, 0x3d, 0x2d, 0xb9, 0x2c, 0xbe, 0xdd, 0x02,
  0x38, 0x2c, 0xb1, 0x27, 0x27, 0x0e, 0x19, 0x0b, 0xdd, 0x3f, 0xad, 0xb4,
  0xd5, 0x0a, 0x16, 0xbe, 0x29, 0x48, 0xb4, 0xd3, 0x3f, 0xb3, 0x06, 0xf6,
  0x0b, 0x13, 0xf3, 0x07, 0x2f, 0x6d, 0x1c, 0x9d, 0x68, 0xdd, 0x28, 0x03,
  0xdd, 0x1e, 0xf2, 0x13, 0xd9, 0xcb, 0xcd, 0xa3, 0x12, 0x32, 0xdc, 0x14,
  0xfe, 0xe9, 0xe0, 0x23, 0xef, 0x12, 0xb9, 0x10, 0xd5, 0xbc, 0x17, 0xd1,
  0x8f, 0xf1, 0xf4, 0xe2, 0xcc, 0x00, 0xf5, 0xbb, 0x48, 0x2b, 0xe5, 0x9d,
  0x04, 0x02, 0x17, 0x46, 0x28, 0xfa, 0x6a, 0x42, 0x18, 0x12, 0xa7, 0x3d,
  0x46, 0x7a, 0x18, 0xda, 0x02, 0x25, 0x30, 0x42, 0xec, 0xf1, 0x38, 0x1b,
  0xdd, 0x12, 0x10, 0xf3, 0xf8, 0xe8, 0xfa, 0x51, 0x32, 0xa7, 0xcd, 0xf8,
  0xde, 0x1b, 0x1a, 0xef, 0xf7, 0x13, 0xd6, 0x13, 0xd9, 0x15, 0xe5, 0x06,
  0xcc, 0x29, 0x6e, 0x45, 0x35, 0x28, 0x58, 0x2f, 0x0d, 0x00, 0x4f, 0xe7,
  0x07, 0x0f, 0x0e, 0xe3, 0x38, 0xdc, 0xdb, 0x14, 0x1a, 0xe0, 0x1a, 0x15,
  0xc9, 0x0b, 0x3c, 0xe8, 0xe3, 0x0c, 0x17, 0x60, 0x1a, 0xf4, 0xfc, 0xb7,
  0xbc, 0x1d, 0xa9, 0x81, 0xbe, 0x42, 0xe1, 0xf2, 0xe7, 0xdc, 0x13, 0x0b,
  0xea, 0x40, 0xf2, 0x64, 0x20, 0x19, 0x30, 0x11, 0x20, 0xc1, 0xd5, 0x50,
  0xd2, 0x4f, 0xe1, 0x46, 0x19, 0x1a, 0xc0, 0xdd, 0x21, 0x0d, 0x04, 0xf3,
  0xec, 0xfe, 0xd1, 0xe9, 0x0c, 0x00, 0xca, 0x29, 0xe2, 0x0e, 0xec, 0x19,
  0x04, 0x37, 0xcd, 0x9c, 0xaf, 0x19, 0x2e, 0xfd, 0xde, 0xd0, 0xed, 0xa7,
  0x12, 0x07, 0xd3, 0xc9, 0x04, 0x46, 0x12, 0xf1, 0x0a, 0xe0, 0x1b, 0xdc,
  0xc2, 0x0d, 0xde, 0x1e, 0xfb, 0x00, 0x81, 0xfc, 0x61, 0xd3, 0xd5, 0x3e,
  0x44, 0x0d, 0xe8, 0x47, 0xf6, 0xb2, 0xea, 0xfd, 0xc6, 0xca, 0x1d, 0xe2,
  0x3a, 0x24, 0xde, 0x12, 0xe2, 0x28, 0xfc, 0x04, 0x62, 0x0a, 0x20, 0x33,
  0xcc, 0x1f, 0x1a, 0x05, 0xcc, 0x2a, 0xea, 0xbb, 0x20, 0x24, 0xd2, 0xfb,
  0x29, 0xc7, 0xf7, 0xfa, 0xea, 0x28, 0x98, 0xa8, 0x39, 0xed, 0xb5, 0x42,
  0x00, 0xeb, 0x25, 0x19, 0x09, 0xd0, 0x31, 0xd5, 0xd9, 0x0d, 0x0d, 0x02,
  0xf0, 0x21, 0x5a, 0x10, 0x25, 0xf8, 0xf1, 0xc5, 0xe2, 0xe9, 0xd7, 0xe0,
  0xd7, 0xf6, 0xe6, 0x25, 0xef, 0x16, 0xf2, 0xe3, 0x20, 0x1a, 0x03, 0xd9,
  0x11, 0xdf, 0xfc, 0x22, 0x1c, 0x0d, 0xf5, 0xcc, 0x30, 0x1f, 0xfc, 0xeb,
  0xe4, 0x2d, 0x13, 0xb6, 0xbc, 0x14, 0x3b, 0xc0, 0xdd, 0x37, 0xed, 0x7d,
  0x10, 0x0b, 0x13, 0x30, 0x44, 0x0e, 0x58, 0x0c, 0xbe, 0x41, 0x1b, 0x38,
  0x26, 0xa3, 0xd6, 0xe2, 0x11, 0xf2, 0xb9, 0x9b, 0xd5, 0x16, 0x45, 0x8c,
  0xfc, 0xac, 0xfe, 0x15, 0xbe, 0xc0, 0xeb, 0xde, 0xc0, 0x69, 0xff, 0x06,
  0xc7, 0x1e, 0x9c, 0x0b, 0xf7, 0xd1, 0x39, 0x1b, 0xb0, 0x3a, 0xe9, 0xa6,
  0xd3, 0xbe, 0xf2, 0x03, 0xd0, 0x02, 0xf7, 0xa9, 0xfa, 0xfa, 0xdc, 0xc7,
  0xe0, 0x01, 0x1b, 0xd7, 0x01, 0xb9, 0x98, 0xc2, 0x99, 0xce, 0x05, 0xc1,
  0xdd, 0xe4, 0x18, 0xf6, 0x22, 0xf0, 0xcb, 0xc8, 0xad, 0xbd, 0xc0, 0xde,
  0xec, 0xff, 0xdb, 0x81, 0xce, 0xff, 0xce, 0x22, 0x51, 0x25, 0x61, 0xf8,
  0x38, 0x21, 0x1c, 0xfa, 0x69, 0xeb, 0x5f, 0x66, 0xc8, 0xe8, 0x2f, 0x30,
  0x1a, 0x8e, 0xb9, 0xbe, 0xfe, 0xf0, 0xae, 0xe0, 0x11, 0xfe, 0xf8, 0xe1,
  0xe9, 0xc1, 0x0d, 0xdb, 0xf3, 0x15, 0x46, 0x33, 0x26, 0xeb, 0x2e, 0x01,
  0xb0, 0xc9, 0x1f, 0x61, 0x42, 0x64, 0xa9, 0xec, 0x1d, 0xf8, 0x36, 0x99,
  0xc4, 0x05, 0xfe, 0x97, 0x0c, 0x52, 0xee, 0x33, 0xaa, 0x2e, 0x3d, 0xfa,
  0x20, 0xbc, 0xcd, 0xe9, 0xbe, 0x06, 0x17, 0x45, 0xba, 0xce, 0xb3, 0x2a,
  0xef, 0xc9, 0x12, 0x2c, 0x17, 0xf0, 0x10, 0x32, 0x51, 0x2c, 0xaf, 0xc5,
  0x01, 0x10, 0x26, 0x15, 0x07, 0xfb, 0xf9, 0xe3, 0xf2, 0x01, 0xa9, 0x7f,
  0x26, 0x57, 0x31, 0xc2, 0x0d, 0x29, 0xcb, 0x58, 0x1f, 0xc7, 0x12, 0xe0,
  0x3a, 0xdf, 0xc8, 0xd3, 0x01, 0xc6, 0x29, 0xcc, 0x00, 0xda, 0xe3, 0xfd,
  0xf4, 0xd2, 0xb8, 0xed, 0xea, 0x52, 0x23, 0xfe, 0xdf, 0xa7, 0x64, 0x07,
  0xc6, 0x2a, 0x5e, 0x20, 0xd2, 0x38, 0x03, 0x47, 0xcd, 0x30, 0x49, 0x0b,
  0xd2, 0x3e, 0x45, 0xd3, 0x41, 0x42, 0x62, 0x1e, 0x08, 0x63, 0xc9, 0x21,
  0x12, 0xb4, 0x33, 0x23, 0x19, 0xe2, 0xe0, 0xd6, 0xef, 0xc9, 0x04, 0xde,
  0x41, 0x06, 0xeb, 0xc7, 0x0a, 0x27, 0x10, 0xeb, 0x3b, 0x05, 0x1f, 0x3e,
  0x09, 0x0d, 0xed, 0x40, 0x29, 0x16, 0x2a, 0x0a, 0xe9, 0x60, 0x15, 0x75,
  0x29, 0xd2, 0x37, 0x6d, 0x25, 0x36, 0x33, 0x0c, 0xce, 0x15, 0xef, 0xe8,
  0xea, 0xc5, 0xff, 0xff, 0x04, 0x00, 0x00, 0x00, 0x80, 0x00, 0x00, 0x00,
  0x31, 0xfa, 0xff, 0xff, 0x6f, 0x26, 0x00, 0x00, 0x80, 0x14, 0x00, 0x00,
  0xcb, 0x22, 0x00, 0x00, 0x6c, 0xbd, 0xff, 0xff, 0xb1, 0xe1, 0xff, 0xff,
  0x33, 0xde, 0xff, 0xff, 0xb6, 0x08, 0x00, 0x00, 0x10, 0x26, 0x00, 0x00,
  0x4f, 0xc7, 0xff, 0xff, 0x81, 0x2a, 0x00, 0x00, 0xfa, 0xd3, 0xff, 0xff,
  0xd2, 0x49, 0x00, 0x00, 0x85, 0x48, 0x00, 0x00, 0xe6, 0x40, 0x00, 0x00,
  0x83, 0xaa, 0xff, 0xff, 0x11, 0x04, 0x00, 0x00, 0x17, 0xf1, 0xff, 0xff,
  0xa2, 0x35, 0x00, 0x00, 0x84, 0x47, 0x00, 0x00, 0xc1, 0x01, 0x00, 0x00,
  0x86, 0x3d, 0x00, 0x00, 0xfc, 0x09, 0x00, 0x00, 0xea, 0xec, 0xff, 0xff,
  0xab, 0xe1, 0xff, 0xff, 0x20, 0x11, 0x00, 0x00, 0x1b, 0x1e, 0x00, 0x00,
  0x8c, 0x12, 0x00, 0x00, 0x0b, 0xd9, 0xff, 0xff, 0xf2, 0x09, 0x00, 0x00,
  0x55, 0x65, 0x00, 0x00, 0x8d, 0xb2, 0xff, 0xff, 0x76, 0xc6, 0xff, 0xff,
  0x04, 0x00, 0x00, 0x00, 0x00, 0x36, 0x00, 0x00, 0xd7, 0x35, 0xfc, 0xf3,
  0x39, 0xc6, 0x33, 0xc9, 0xc8, 0x06, 0x0f, 0xd2, 0x22, 0x0f, 0x33, 0xe5,
  0x03, 0x06, 0x06, 0xfc, 0x26, 0xc5, 0xec, 0xc6, 0x2d, 0xe1, 0x1b, 0xda,
  0x35, 0x29, 0xdf, 0x01, 0x0a, 0xc5, 0xd5, 0xc1, 0x45, 0xfe, 0x52, 0x4d,
  0x2a, 0x7f, 0x3a, 0xac, 0xe6, 0x03, 0xe5, 0x3d, 0xf1, 0x39, 0xdf, 0x01,
  0xba, 0x36, 0xf2, 0x7b, 0xf5, 0xda, 0xe6, 0x16, 0x65, 0x5b, 0x1a, 0x2b,
  0x31, 0xf5, 0x04, 0xe6, 0xc6, 0xd2, 0x04, 0xf5, 0xd7, 0xcc, 0x36, 0xd7,
  0xd0, 0xe6, 0xc6, 0xd3, 0xe0, 0xf7, 0xc5, 0xd9, 0xda, 0x00, 0x23, 0xd4,
  0x04, 0xcd, 0x35, 0xf6, 0xfc, 0x35, 0xfe, 0x37, 0x06, 0xf7, 0x3b, 0xdb,
  0x00, 0xee, 0xc5, 0x18, 0xe8, 0x33, 0x1a, 0x1e, 0x16, 0x25, 0xe5, 0xef,
  0xdd, 0x1a, 0x1d, 0x18, 0xf5, 0x0c, 0x1c, 0xfe, 0xe7, 0xff, 0x01, 0x34,
  0xc7, 0xec, 0xf1, 0x22, 0x13, 0x13, 0x1e, 0x2d, 0xc1, 0x14, 0x2a, 0xf4,
  0xce, 0xf8, 0x02, 0xd6, 0xf2, 0x14, 0xcb, 0x38, 0x04, 0x16, 0xd1, 0xff,
  0x69, 0x0c, 0xef, 0x09, 0x21, 0xbb, 0xe2, 0x03, 0x30, 0x0a, 0xbe, 0x38,
  0x0c, 0x0b, 0xd3, 0x37, 0xdf, 0xed, 0xe2, 0x0d, 0xe9, 0x01, 0xcf, 0xfd,
  0xe6, 0x00, 0xc9, 0x27, 0xdd, 0xcc, 0xef, 0xf4, 0xf7, 0xe2, 0xec, 0x2c,
  0x0e, 0x30, 0xe3, 0x33, 0x1a, 0xce, 0xc5, 0x3a, 0xc4, 0x0a, 0x1d, 0x1f,
  0x2a, 0xd3, 0xd7, 0x0c, 0x2e, 0xea, 0xf4, 0xd7, 0x20, 0xd8, 0xc9, 0xe5,
  0x36, 0xf8, 0xf6, 0xe9, 0xcd, 0x29, 0xd0, 0x2e, 0xda, 0x39, 0xf3, 0xc6,
  0xd2, 0xd2, 0x29, 0x05, 0x2f, 0x2b, 0x30, 0xfb, 0xcf, 0x2c, 0xd4, 0x2a,
  0x4e, 0x18, 0x41, 0x2a, 0xe7, 0xf4, 0x43, 0xe2, 0x30, 0x1a, 0x15, 0xe4,
  0x1d, 0x2b, 0x19, 0xdc, 0xf4, 0x20, 0x24, 0x3a, 0xdc, 0xfc, 0xf4, 0x3c,
  0x12, 0xe3, 0xfc, 0xea, 0x0b, 0xef, 0x03, 0x23, 0xd3, 0x15, 0x05, 0x06,
  0x2b, 0xdf, 0xcb, 0xf8, 0xf2, 0x0c, 0xd6, 0x0f, 0xf3, 0x22, 0x1a, 0xdb,
  0x33, 0xf4, 0xf8, 0xe5, 0xc5, 0x1a, 0xda, 0xc4, 0xe9, 0xe4, 0xf4, 0x25,
  0xfe, 0x22, 0xe8, 0xed, 0x26, 0xc5, 0x36, 0x26, 0x36, 0x07, 0xf0, 0xd0,
  0xc1, 0x10, 0x26, 0xf9, 0x01, 0xff, 0xdb, 0xdc, 0x0e, 0x3a, 0xd9, 0x17,
  0x1e, 0x33, 0xc9, 0xfd, 0x0f, 0x22, 0x1e, 0xc8, 0xc4, 0xc6, 0x14, 0xfe,
  0xca, 0x0a, 0xbf, 0x3b, 0x03, 0xc7, 0xda, 0x0c, 0xba, 0xd5, 0x19, 0x4d,
  0x0c, 0xd6, 0x11, 0xec, 0xd7, 0xad, 0x1d, 0xd8, 0x0d, 0x0e, 0x29, 0x08,
  0xcd, 0xf6, 0xc4, 0xf6, 0x1c, 0x25, 0xc7, 0x2f, 0x31, 0xd4, 0x1f, 0xd6,
  0xd6, 0x0a, 0xcf, 0xd5, 0x36, 0x39, 0x06, 0xe5, 0xc2, 0xed, 0xcd, 0xf3,
  0xc6, 0x1a, 0x2a, 0x34, 0xc2, 0x23, 0xe1, 0x1d, 0xe3, 0x37, 0x2d, 0x25,
  0x2a, 0x13, 0xce, 0xe3, 0x06, 0x1d, 0xfc, 0x01, 0xd3, 0xcb, 0xed, 0xc8,
  0x15, 0xe7, 0x3f, 0xfe, 0xd3, 0x02, 0xe0, 0x38, 0xf1, 0x35, 0x24, 0xe1,
  0xf1, 0x3e, 0x1f, 0x0a, 0x1b, 0xd3, 0xc4, 0xd7, 0x06, 0xf4, 0xb7, 0x11,
  0xcc, 0x81, 0xe8, 0x16, 0xe7, 0x1b, 0xf7, 0xf1, 0xee, 0xd2, 0xe3, 0xf5,
  0xe8, 0xdd, 0xc6, 0xeb, 0xb2, 0xc9, 0x36, 0xf8, 0xfa, 0xeb, 0xe4, 0x95,
  0x0f, 0x1d, 0xdd, 0x0a, 0x2e, 0xf2, 0x35, 0xc7, 0xf3, 0x07, 0x11, 0xd1,
  0x01, 0x2a, 0x26, 0xc7, 0xe6, 0x17, 0x24, 0xf4, 0x2c, 0xeb, 0xe8, 0x1a,
  0xcb, 0x2a, 0x21, 0x3a, 0x22, 0x3e, 0x34, 0x09, 0x0d, 0x02, 0xef, 0x19,
  0x28, 0x1a, 0x29, 0xdf, 0xfd, 0xd7, 0xd6, 0xd5, 0xfc, 0xe5, 0x1e, 0x11,
  0xc2, 0xdd, 0xc2, 0x31, 0x29, 0xff, 0x28, 0x3f, 0xe2, 0xdf, 0x0a, 0x34,
  0x29, 0xe1, 0xf4, 0x26, 0xc9, 0xb0, 0xed, 0x1d, 0xe4, 0xcc, 0xe2, 0x29,
  0xfa, 0xff, 0x14, 0xfc, 0x1f, 0xb7, 0xf9, 0xca, 0xd4, 0xeb, 0x28, 0xf7,
  0x0f, 0xe0, 0x38, 0x1e, 0x1b, 0x1d, 0x14, 0xcc, 0xb8, 0x35, 0xe8, 0x19,
  0x15, 0xe1, 0x36, 0x14, 0x28, 0xc4, 0xc9, 0x1f, 0xd5, 0x12, 0x3d, 0xcf,
  0xf8, 0x33, 0x0f, 0xe4, 0x2b, 0xcf, 0x25, 0xeb, 0x0c, 0x09, 0xf8, 0xf3,
  0xf9, 0x24, 0xe8, 0x3f, 0x35, 0x0d, 0xea, 0x3c, 0xf8, 0xe9, 0xf2, 0x1b,
  0x0d, 0x1b, 0xf5, 0x34, 0xf2, 0x28, 0x23, 0x25, 0xe6, 0x13, 0x14, 0x24,
  0xdc, 0xfb, 0x1b, 0x32, 0xd5, 0xe9, 0x04, 0x29, 0x19, 0x30, 0x0e, 0xcb,
  0x29, 0xf1, 0x33, 0x07, 0x19, 0x3f, 0xe1, 0x52, 0xf8, 0x01, 0xe4, 0xaf,
  0x4c, 0xaf, 0x43, 0xde, 0x58, 0x2b, 0x62, 0xc4, 0xec, 0x0e, 0x33, 0x64,
  0x0c, 0x15, 0x1f, 0x29, 0xbb, 0x14, 0xfc, 0xcb, 0x01, 0x20, 0x16, 0x1b,
  0xe0, 0x1c, 0xda, 0x26, 0xe3, 0xf4, 0x31, 0xd3, 0x22, 0xcc, 0x1a, 0x1b,
  0xf2, 0x0e, 0xd7, 0xd5, 0x0b, 0xd2, 0xe6, 0xe7, 0xf2, 0x0a, 0x22, 0x19,
  0xd6, 0xed, 0xe3, 0x1a, 0x12, 0x09, 0x34, 0x0d, 0x29, 0xf5, 0xfc, 0xf4,
  0xef, 0x33, 0x0f, 0x0c, 0x22, 0x26, 0xcb, 0xf2, 0x2f, 0x14, 0xf1, 0x03,
  0xcb, 0xd6, 0x29, 0x2a, 0xea, 0xf7, 0xd6, 0xd4, 0xd8, 0x30, 0xf7, 0x03,
  0xe4, 0xe2, 0x1e, 0xfd, 0xee, 0x36, 0xe5, 0xb9, 0x01, 0xd1, 0xba, 0x3c,
  0xda, 0x20, 0xef, 0x07, 0xf5, 0x07, 0xe4, 0x0b, 0x17, 0x1e, 0x4d, 0xfb,
  0x01, 0x13, 0xe2, 0xe7, 0xf3, 0x7f, 0xd0, 0x3e, 0xd3, 0x0f, 0x28, 0xfc,
  0xea, 0x01, 0xd2, 0x34, 0xf5, 0xe4, 0x22, 0xe5, 0xd5, 0xff, 0xdb, 0xe0,
  0xea, 0x03, 0x2d, 0xdd, 0x28, 0x11, 0x1f, 0x03, 0x24, 0xe1, 0x29, 0xee,
  0x04, 0xef, 0xd8, 0x1f, 0xda, 0x26, 0x2c, 0xf9, 0xf8, 0xcb, 0xd3, 0xed,
  0x34, 0xe2, 0xec, 0x27, 0x19, 0xf2, 0x23, 0xff, 0xf9, 0x19, 0xd8, 0x2b,
  0xe0, 0x01, 0x1d, 0x1d, 0xf8, 0xe4, 0x15, 0xd3, 0x14, 0xf3, 0xcf, 0xf0,
  0xd9, 0x33, 0xd5, 0x1b, 0x21, 0xd4, 0x17, 0xeb, 0xce, 0xd4, 0xe7, 0xeb,
  0xe9, 0xf9, 0xcd, 0x24, 0xee, 0xb2, 0xc0, 0xe0, 0x00, 0xf8, 0xfd, 0xd3,
  0x0a, 0x0b, 0xf8, 0x2d, 0x03, 0xd0, 0x1e, 0xfd, 0xcf, 0xc8, 0x18, 0xec,
  0xd4, 0xe0, 0xcc, 0xf0, 0xed, 0x05, 0xe2, 0x07, 0x09, 0x05, 0x0e, 0x21,
  0x1f, 0x31, 0x15, 0xe2, 0xd0, 0xfe, 0x11, 0x32, 0x14, 0xde, 0xcd, 0x10,
  0xe0, 0xd7, 0xec, 0x20, 0x22, 0xfb, 0xf3, 0x07, 0x08, 0xe3, 0xdc, 0x18,
  0xf9, 0x22, 0xeb, 0x22, 0xd4, 0x1e, 0xfa, 0x08, 0xf6, 0xd4, 0xf7, 0xe1,
  0x07, 0xfd, 0x11, 0xe4, 0x05, 0x04, 0xf3, 0x21, 0xe6, 0xeb, 0x1e, 0xf5,
  0x05, 0xed, 0xe6, 0x1c, 0x04, 0xab, 0xbf, 0xf5, 0x1f, 0x35, 0x4d, 0xe4,
  0x27, 0x4e, 0x17, 0xee, 0xf4, 0x2a, 0xfb, 0x2a, 0x28, 0x12, 0x48, 0x2d,
  0xda, 0xf0, 0xf2, 0x3f, 0xd7, 0xdb, 0x36, 0x00, 0x39, 0xe8, 0x00, 0xf9,
  0x07, 0xe7, 0x0b, 0x20, 0xfe, 0x0e, 0x04, 0xe5, 0x22, 0xe9, 0x18, 0xd4,
  0xde, 0x14, 0xf5, 0x2c, 0x26, 0x2e, 0xe3, 0xe3, 0xfd, 0xde, 0xf0, 0x24,
  0x0c, 0xf8, 0x00, 0x19, 0xf1, 0x06, 0xd4, 0x2c, 0xdf, 0x0d, 0xda, 0x04,
  0x0c, 0xd9, 0x29, 0x0c, 0x05, 0x16, 0xf0, 0x1d, 0x1a, 0x18, 0x2c, 0xf3,
  0xee, 0xeb, 0x0a, 0x02, 0x23, 0x28, 0xf9, 0x26, 0x0b, 0x17, 0x17, 0xd2,
  0x23, 0x13, 0x13, 0xf0, 0xd6, 0xc9, 0xff, 0x7f, 0x12, 0xf2, 0x73, 0x16,
  0x3f, 0xf8, 0xef, 0xdc, 0xd5, 0xe2, 0x0e, 0x29, 0x19, 0xeb, 0xf4, 0xeb,
  0x2a, 0x03, 0x06, 0x02, 0xe8, 0x90, 0xee, 0x07, 0x36, 0x08, 0xbc, 0x1c,
  0xf5, 0x00, 0xfb, 0x1a, 0x17, 0xe3, 0x13, 0xd7, 0xd5, 0x2f, 0xee, 0xec,
  0x02, 0x2a, 0x1f, 0xed, 0xe1, 0x26, 0x1f, 0x1e, 0x25, 0xd6, 0x0f, 0xfb,
  0x12, 0xe1, 0x27, 0x1c, 0x1b, 0xf5, 0xfe, 0xe4, 0xf8, 0xde, 0x2f, 0xe6,
  0xd2, 0xda, 0x01, 0xe4, 0xe6, 0x2a, 0xea, 0xe2, 0x13, 0x0a, 0x0c, 0xfc,
  0x2f, 0xdd, 0xd3, 0x08, 0xde, 0xd5, 0xf7, 0x17, 0xf1, 0x1a, 0x07, 0xd9,
  0xe6, 0x12, 0x04, 0xd8, 0x1b, 0x42, 0xd9, 0x08, 0xe0, 0xfe, 0xa6, 0xee,
  0x02, 0x1d, 0x06, 0xf2, 0xff, 0xf6, 0xfb, 0x21, 0xed, 0xe8, 0x04, 0xf7,
  0x15, 0xe7, 0x0e, 0xf5, 0x34, 0x00, 0x00, 0xcc, 0xed, 0x17, 0x11, 0xe8,
  0xe4, 0x0c, 0xd3, 0xd2, 0x0b, 0x0b, 0xe2, 0x10, 0xd8, 0xfd, 0xf1, 0xfa,
  0xd5, 0x07, 0xea, 0x10, 0x19, 0x07, 0x2e, 0xd9, 0x17, 0xeb, 0x24, 0xe4,
  0x2a, 0x20, 0xd4, 0xf6, 0xe4, 0x26, 0x11, 0xf3, 0x1c, 0xff, 0xf2, 0x1e,
  0x26, 0xf6, 0x10, 0xe2, 0xf3, 0x10, 0xdd, 0x0f, 0x19, 0x06, 0x21, 0x16,
  0xd6, 0xdb, 0xe7, 0xe1, 0xf9, 0xf9, 0xe5, 0xd2, 0x17, 0x15, 0xed, 0xda,
  0xe1, 0xe4, 0xd3, 0x0b, 0x04, 0xf0, 0x1a, 0xe0, 0x22, 0xdb, 0x15, 0xe4,
  0xf9, 0x3e, 0xde, 0xe8, 0xc4, 0xd2, 0x04, 0x05, 0x07, 0xe9, 0x17, 0x1e,
  0xe6, 0x0f, 0x34, 0x0a, 0xe2, 0x17, 0x29, 0x00, 0xd9, 0xdd, 0x3c, 0xfa,
  0xf4, 0xd2, 0xf8, 0x12, 0xef, 0xf4, 0x1e, 0xfd, 0x20, 0x1d, 0xfc, 0xe2,
  0xfe, 0x1d, 0x06, 0x16, 0xf0, 0xf1, 0x2a, 0xe6, 0x16, 0xfb, 0x03, 0x2b,
  0x2c, 0x07, 0xd8, 0x26, 0xeb, 0x1a, 0x23, 0x11, 0xef, 0x1d, 0xd6, 0xfd,
  0x1b, 0x07, 0xf8, 0xed, 0x23, 0xe8, 0xe5, 0x21, 0xd9, 0xee, 0x01, 0x1b,
  0xf7, 0xda, 0x1b, 0xde, 0x03, 0x15, 0x19, 0xe9, 0x13, 0x24, 0xd7, 0x0f,
  0x18, 0x05, 0x0d, 0xe0, 0xdd, 0xf5, 0x10, 0x7f, 0x2a, 0x28, 0x26, 0x20,
  0x10, 0xcb, 0x0f, 0xdc, 0xdc, 0xd9, 0x00, 0x0b, 0x04, 0xe5, 0xd8, 0xf8,
  0x46, 0xb4, 0x04, 0x0f, 0xdd, 0xb5, 0x21, 0x07, 0x46, 0x48, 0xe1, 0x0e,
  0x25, 0x29, 0xe4, 0xd8, 0xfc, 0x2b, 0xef, 0x1c, 0xe6, 0xdd, 0x25, 0xd9,
  0x01, 0xdb, 0x2d, 0xf4, 0xf9, 0xd9, 0x20, 0xef, 0x27, 0xe7, 0x1e, 0x13,
  0xd4, 0xea, 0x2a, 0xdb, 0xfd, 0x1c, 0x2d, 0x2c, 0xe7, 0xfc, 0x2b, 0x1b,
  0x2a, 0xfd, 0x24, 0x02, 0x25, 0x01, 0xde, 0x1d, 0x24, 0xea, 0x06, 0xf0,
  0x13, 0xe0, 0xee, 0x22, 0x24, 0xfe, 0xd4, 0xf6, 0xe4, 0x00, 0xff, 0x20,
  0x12, 0xd2, 0xfa, 0xf8, 0x0d, 0xfe, 0x21, 0x14, 0x07, 0x17, 0xe7, 0x31,
  0x14, 0x54, 0x1d, 0xe8, 0xdb, 0x1a, 0x11, 0x2a, 0xf0, 0x01, 0xca, 0x02,
  0x17, 0x13, 0xec, 0xda, 0x39, 0x3a, 0x1a, 0xd4, 0x29, 0x20, 0x1f, 0xfb,
  0xdc, 0x1d, 0x29, 0x14, 0x27, 0x0f, 0x1c, 0x02, 0xe8, 0xd3, 0xeb, 0xec,
  0xe0, 0xf5, 0xdc, 0xf0, 0xf4, 0x05, 0x1f, 0x06, 0x11, 0xd8, 0x07, 0x2b,
  0x1b, 0xe6, 0xee, 0xf5, 0xf5, 0x13, 0xd4, 0x1c, 0x0d, 0xe4, 0xe7, 0xe1,
  0xdb, 0xd3, 0x2a, 0x04, 0x1d, 0x0e, 0x03, 0xe7, 0x15, 0x22, 0xee, 0xdc,
  0x00, 0x08, 0xd1, 0xee, 0xe4, 0x2b, 0x2e, 0x0c, 0x1f, 0x09, 0xfc, 0xfd,
  0xfe, 0x25, 0xf6, 0xd6, 0x18, 0x06, 0x1c, 0xcc, 0x43, 0x0e, 0xe0, 0x4e,
  0xf5, 0x5f, 0xd2, 0xd8, 0x0d, 0x25, 0xe6, 0x03, 0x48, 0x00, 0xde, 0xd2,
  0xfc, 0xe5, 0x02, 0x53, 0x01, 0xf7, 0xf9, 0x2a, 0x4f, 0x2f, 0x10, 0xf5,
  0xd2, 0xe8, 0x00, 0x05, 0xd5, 0xde, 0xef, 0x2f, 0xd7, 0x0a, 0x1f, 0x1f,
  0xe6, 0xfb, 0x1d, 0x08, 0x1b, 0x04, 0xe1, 0xe2, 0x26, 0xec, 0xd7, 0xee,
  0x2f, 0xf0, 0x26, 0xde, 0xe8, 0x20, 0x21, 0x04, 0xe0, 0x12, 0xec, 0x24,
  0x11, 0x2a, 0xe0, 0x0f, 0xe2, 0x27, 0xfb, 0x16, 0x25, 0x25, 0xdd, 0xff,
  0xfc, 0xe4, 0x11, 0x06, 0xd7, 0xf4, 0xfb, 0x26, 0xdb, 0x0d, 0x0c, 0xe1,
  0xe0, 0x0e, 0x17, 0xf4, 0x3c, 0xfd, 0x1d, 0x5e, 0xfd, 0xfb, 0x7f, 0xe2,
  0x18, 0x0f, 0x00, 0xe9, 0xd8, 0x1a, 0x12, 0x1f, 0xfb, 0xfb, 0xd1, 0x15,
  0x54, 0xd1, 0x23, 0xf3, 0xf6, 0xdc, 0x2f, 0x1d, 0x2c, 0x3c, 0xc0, 0x54,
  0xfb, 0xe0, 0x00, 0xff, 0xfd, 0x20, 0x0f, 0xeb, 0x1d, 0xe0, 0x06, 0xec,
  0x2d, 0x0d, 0xe3, 0xed, 0x0a, 0xeb, 0x0d, 0x29, 0xf4, 0xe1, 0x02, 0x2c,
  0x28, 0x24, 0xd3, 0xe8, 0x1b, 0x27, 0x2d, 0x17, 0x15, 0xe7, 0x24, 0x18,
  0x24, 0xe4, 0x2e, 0xe4, 0xf1, 0x0c, 0x0b, 0x2c, 0x06, 0xde, 0x15, 0x2d,
  0xf9, 0x1f, 0xf8, 0x16, 0x18, 0xf2, 0xf8, 0xd5, 0x26, 0x15, 0x0c, 0xe1,
  0x05, 0x30, 0x22, 0xf7, 0xe3, 0xf1, 0x34, 0xf4, 0x3f, 0xe6, 0x1c, 0xfc,
  0xee, 0x0a, 0x00, 0xf4, 0x39, 0x06, 0x1d, 0x0f, 0x27, 0x25, 0xf5, 0xfc,
  0x14, 0xfc, 0xe3, 0x0e, 0x0f, 0x23, 0xda, 0x35, 0x1d, 0x36, 0x00, 0x29,
  0x2b, 0x05, 0x2d, 0xeb, 0x16, 0xfb, 0x02, 0x30, 0xfc, 0x2e, 0x23, 0x20,
  0x12, 0x15, 0x28, 0x2a, 0x1b, 0xed, 0x02, 0xe3, 0x0e, 0xdc, 0x21, 0xf8,
  0xe0, 0xe3, 0xfd, 0xe7, 0xfd, 0xfd, 0x0e, 0xf3, 0x17, 0x05, 0x17, 0x21,
  0x13, 0xdd, 0x12, 0xe0, 0xf4, 0xee, 0xfd, 0xe9, 0xd6, 0xdb, 0xe6, 0xfe,
  0xec, 0x21, 0xf7, 0xd6, 0xde, 0xf0, 0x19, 0x03, 0x22, 0xe2, 0x26, 0xe0,
  0xe9, 0xd6, 0xea, 0xfb, 0xf2, 0x25, 0xd4, 0x40, 0xd1, 0xe0, 0xf9, 0x19,
  0x37, 0xdb, 0x1e, 0xf7, 0x17, 0x06, 0x7f, 0xd7, 0xda, 0x1f, 0x12, 0x04,
  0x21, 0x0f, 0xe3, 0xdd, 0x07, 0x23, 0xe2, 0xc8, 0xf6, 0x27, 0x34, 0x19,
  0xe0, 0x28, 0xdc, 0xf0, 0x13, 0x0a, 0x17, 0x1f, 0xef, 0xda, 0xe3, 0x0c,
  0x15, 0x2a, 0x1b, 0x25, 0xff, 0x11, 0xe1, 0xdb, 0xdd, 0xdf, 0xf0, 0xdf,
  0x0f, 0x0b, 0xee, 0xf2, 0x14, 0x1b, 0x1c, 0xd7, 0x06, 0x0e, 0xd5, 0x02,
  0x08, 0xe2, 0x00, 0x1c, 0xfc, 0xf8, 0x13, 0x12, 0x20, 0xea, 0x1b, 0x04,
  0xfa, 0x26, 0xd8, 0x21, 0x24, 0xf2, 0xf8, 0xd6, 0xf5, 0xdb, 0xf0, 0xe5,
  0x1f, 0xdd, 0xd6, 0xd5, 0xf8, 0x0f, 0xe2, 0xb1, 0xde, 0x25, 0xe7, 0x0b,
  0xe7, 0x1e, 0xf9, 0x23, 0xeb, 0x2e, 0xe8, 0x1d, 0xfa, 0x44, 0x35, 0xec,
  0xb6, 0x1a, 0xc0, 0xf4, 0x09, 0x3e, 0xf5, 0x1d, 0x05, 0xe4, 0x1c, 0xe6,
  0xf7, 0xea, 0x12, 0xdc, 0xda, 0x0e, 0x11, 0x0d, 0x1f, 0x27, 0x20, 0xda,
  0xe7, 0xd8, 0x1b, 0xe9, 0x1d, 0xef, 0x05, 0xf0, 0xf7, 0xf5, 0x07, 0x05,
  0xef, 0x28, 0x09, 0x13, 0xd5, 0x1e, 0x11, 0xd7, 0xdd, 0xf6, 0xde, 0xe9,
  0xe7, 0x28, 0x0a, 0x06, 0xf3, 0x25, 0x07, 0xf2, 0xf6, 0xf3, 0xfd, 0xf4,
  0xf3, 0x23, 0x23, 0x17, 0xf4, 0xdb, 0xfe, 0x22, 0xd8, 0xff, 0xf8, 0x2a,
  0xd8, 0xeb, 0x22, 0x02, 0x0c, 0xef, 0xc2, 0xe0, 0xf6, 0xc1, 0x15, 0xe3,
  0xd0, 0xf1, 0xed, 0xe8, 0xf2, 0x14, 0x11, 0x0f, 0xd5, 0xec, 0xfe, 0x02,
  0xf8, 0xd9, 0x04, 0x24, 0xfe, 0x10, 0xf6, 0xf7, 0xdb, 0xef, 0xec, 0xf7,
  0xf3, 0x1d, 0xd6, 0x08, 0x1f, 0x29, 0xe1, 0x12, 0x0b, 0x17, 0x1b, 0xe9,
  0x01, 0x2b, 0x24, 0xd9, 0x0b, 0x06, 0x00, 0x01, 0x2a, 0x10, 0x13, 0x1d,
  0xdb, 0xe4, 0xfd, 0xdb, 0x17, 0xd8, 0x0e, 0xd9, 0x1c, 0xce, 0x1b, 0x27,
  0xb5, 0x42, 0x28, 0xe1, 0xf6, 0xae, 0x11, 0x17, 0x20, 0x0b, 0x2f, 0xd9,
  0x4e, 0xdb, 0x0a, 0x3e, 0x4c, 0xbc, 0xe9, 0x1d, 0xc0, 0x16, 0x1c, 0x1c,
  0xcd, 0xe5, 0x08, 0xeb, 0x07, 0xef, 0x05, 0x1a, 0x74, 0xd1, 0xa2, 0x3d,
  0xa3, 0x57, 0xba, 0xd2, 0x5e, 0x2d, 0xcd, 0x23, 0x20, 0x3a, 0x96, 0xc8,
  0xc1, 0x2b, 0xa3, 0x20, 0x4f, 0x59, 0xa9, 0xc8, 0x59, 0xed, 0x03, 0xb5,
  0x41, 0x2e, 0xda, 0xd9, 0x0c, 0xbb, 0x0b, 0xce, 0x1a, 0x28, 0x31, 0xc3,
  0x35, 0xfb, 0xdb, 0x1a, 0xbd, 0xe7, 0xdf, 0x13, 0x18, 0xd6, 0x20, 0x22,
  0x25, 0xe9, 0x37, 0xda, 0xce, 0xde, 0xdf, 0x27, 0xf9, 0xc7, 0x12, 0x01,
  0xdc, 0xc7, 0x47, 0xc5, 0xde, 0x25, 0xb9, 0x10, 0x10, 0x1b, 0x2a, 0x2f,
  0x33, 0x51, 0xea, 0xba, 0x43, 0x3f, 0xc6, 0xca, 0xbf, 0x48, 0xd3, 0x20,
  0x19, 0x08, 0xb6, 0xe6, 0x3b, 0xe1, 0x3f, 0x48, 0xe8, 0x5c, 0x54, 0xc4,
  0x7e, 0x1f, 0x33, 0xe8, 0xe6, 0xb1, 0xd5, 0x00, 0x20, 0xd7, 0xe1, 0xa8,
  0x7f, 0x44, 0x37, 0xf6, 0x37, 0xd7, 0xb2, 0x68, 0x23, 0x22, 0x4d, 0x52,
  0xc7, 0xb3, 0x26, 0xd7, 0x17, 0xc8, 0x4e, 0xb4, 0xc0, 0xb2, 0xc1, 0xcd,
  0x34, 0x4f, 0xb7, 0xc7, 0x26, 0xae, 0xb3, 0x16, 0xef, 0xf9, 0x44, 0xc5,
  0x0a, 0xbd, 0x24, 0xb2, 0xbc, 0x00, 0xdc, 0x06, 0x40, 0x4b, 0x40, 0x15,
  0x51, 0xcb, 0xd2, 0x4c, 0x4e, 0x00, 0x3e, 0xad, 0x13, 0xb3, 0x51, 0xbd,
  0xae, 0xd0, 0x11, 0x4e, 0xfa, 0xc7, 0xfa, 0x05, 0xe9, 0x43, 0x0a, 0xb0,
  0xe6, 0xb7, 0x46, 0x34, 0x39, 0x2d, 0xe8, 0x17, 0x45, 0x30, 0xfe, 0x0c,
  0x43, 0x5d, 0xe2, 0xa7, 0x46, 0x2c, 0xe6, 0x10, 0x3c, 0x09, 0xb7, 0x91,
  0x3f, 0x4d, 0x05, 0xdb, 0x27, 0xc1, 0xe9, 0x21, 0x7d, 0x7e, 0x00, 0xd7,
  0x20, 0xbe, 0x3a, 0x28, 0x0a, 0xf6, 0x52, 0xea, 0x3c, 0x0e, 0xf1, 0x4d,
  0xd4, 0xf8, 0xe1, 0x34, 0x14, 0xd9, 0x0e, 0x08, 0x09, 0xc6, 0x00, 0xff,
  0xb0, 0xce, 0xe9, 0xdf, 0xcf, 0xf3, 0x1b, 0x06, 0xfe, 0x22, 0x1c, 0xe8,
  0x0f, 0x10, 0x07, 0xe6, 0x05, 0x2e, 0xea, 0x0c, 0x2d, 0xfc, 0xf3, 0x0b,
  0xf9, 0x18, 0x05, 0x2e, 0xf9, 0x15, 0x1d, 0xf9, 0x15, 0xf0, 0x07, 0xe1,
  0x26, 0xd1, 0x17, 0x09, 0xf6, 0xee, 0x11, 0x19, 0x25, 0xec, 0x12, 0x0d,
  0x05, 0x3f, 0x22, 0x17, 0xd0, 0x27, 0x02, 0x1c, 0xe8, 0x3e, 0x04, 0x1f,
  0xbb, 0x22, 0x17, 0x08, 0x03, 0x30, 0xd5, 0x28, 0xe4, 0x04, 0xf8, 0xe8,
  0x27, 0xef, 0xf6, 0xef, 0xd2, 0xd6, 0x01, 0x21, 0x02, 0xe9, 0xe4, 0x0b,
  0xda, 0x22, 0xf3, 0xf3, 0x08, 0x22, 0xd0, 0xed, 0xe8, 0xd9, 0xdf, 0x26,
  0x16, 0xd6, 0x2f, 0x1a, 0x07, 0xfd, 0x30, 0x0b, 0x0f, 0x1d, 0x01, 0xfd,
  0x1c, 0xef, 0xef, 0xe9, 0xe0, 0xde, 0x15, 0x10, 0xf1, 0xdb, 0x1b, 0x21,
  0x19, 0xd9, 0x2e, 0x25, 0xd4, 0x07, 0xf9, 0x0a, 0xe3, 0x00, 0xe3, 0x26,
  0xea, 0x0e, 0xf3, 0xda, 0xc3, 0xd0, 0xec, 0x4b, 0x16, 0x15, 0x7f, 0x12,
  0x1a, 0xf0, 0x15, 0xd7, 0x12, 0xd4, 0xef, 0x0b, 0xe9, 0xe3, 0xbb, 0xbc,
  0x55, 0xbf, 0x33, 0x18, 0xe1, 0xa3, 0x17, 0x02, 0x1e, 0x40, 0xc5, 0x02,
  0x0f, 0xda, 0x03, 0x16, 0xe7, 0xd8, 0x20, 0xf1, 0x21, 0x1d, 0xf7, 0x01,
  0xd5, 0xd9, 0x05, 0xf5, 0xf8, 0xfb, 0xf4, 0x14, 0x20, 0xed, 0x10, 0xe8,
  0x18, 0x2d, 0x1f, 0xf2, 0x03, 0xf6, 0x0a, 0xd8, 0x1b, 0x21, 0x2b, 0x29,
  0xf6, 0xea, 0xd4, 0x1f, 0x09, 0xd2, 0x0b, 0xe3, 0x13, 0x0e, 0x02, 0x0e,
  0x0f, 0xf6, 0xe6, 0x23, 0xe6, 0x15, 0xdd, 0x18, 0x07, 0x19, 0x11, 0x17,
  0xd4, 0xe0, 0x2f, 0xdb, 0x06, 0x10, 0xda, 0x23, 0xfd, 0x18, 0xd8, 0xf6,
  0x2b, 0x24, 0xeb, 0xcc, 0x35, 0xd9, 0x15, 0xe8, 0x0e, 0x42, 0xc6, 0xc9,
  0xf8, 0xc4, 0x19, 0xff, 0x22, 0xf7, 0x05, 0xd5, 0x21, 0x01, 0xd0, 0x1e,
  0xfb, 0x07, 0x26, 0xe4, 0xfb, 0xe9, 0xf5, 0xe1, 0x29, 0x22, 0xd7, 0xd3,
  0x1f, 0x06, 0x13, 0x29, 0x20, 0x29, 0x27, 0xe4, 0xf6, 0xe0, 0xe4, 0x26,
  0xf7, 0x0d, 0x20, 0xef, 0xf9, 0xd6, 0x03, 0x23, 0x46, 0x2c, 0x14, 0x08,
  0x24, 0xbc, 0xe0, 0x3f, 0x15, 0x3e, 0x08, 0x09, 0x44, 0x2d, 0xf7, 0xfe,
  0x23, 0xff, 0xe6, 0xcc, 0x32, 0xd7, 0x00, 0xcf, 0x49, 0xe5, 0x25, 0x21,
  0x02, 0x18, 0x1a, 0x42, 0x12, 0xdd, 0x2d, 0xaf, 0x39, 0xf6, 0x54, 0xb9,
  0xf7, 0x38, 0x23, 0xde, 0xd5, 0xbf, 0xee, 0x4a, 0x29, 0xe7, 0x0d, 0x0b,
  0xef, 0x1c, 0x1b, 0x45, 0xd6, 0x20, 0xee, 0xec, 0x35, 0x81, 0x46, 0xd1,
  0x2e, 0xca, 0x1b, 0x41, 0x0d, 0xee, 0xfe, 0x42, 0x37, 0x35, 0x2a, 0xc6,
  0xe4, 0x3f, 0xd2, 0x2b, 0xc9, 0xd7, 0xeb, 0xc7, 0x1c, 0xfa, 0x45, 0x24,
  0xdf, 0xb9, 0xea, 0xc1, 0x3f, 0x17, 0x05, 0x36, 0x49, 0x3f, 0x2f, 0x24,
  0xd1, 0x2e, 0xef, 0xf8, 0xf3, 0x0e, 0x2c, 0x49, 0x1f, 0xf2, 0x3d, 0x1d,
  0x2e, 0x2d, 0xb9, 0x3e, 0xec, 0xd4, 0x19, 0xce, 0xea, 0xe7, 0x47, 0x0c,
  0xe5, 0xeb, 0xca, 0x22, 0x05, 0xc0, 0x13, 0x77, 0xf4, 0x00, 0x70, 0xfc,
  0x52, 0xc9, 0x0a, 0xfd, 0xf6, 0xf9, 0x26, 0x55, 0xee, 0x20, 0xe1, 0xec,
  0x45, 0xbf, 0x66, 0x33, 0x2e, 0xae, 0x07, 0x18, 0x33, 0x78, 0xaa, 0xee,
  0xca, 0x27, 0xcc, 0xf0, 0x06, 0xe0, 0x26, 0x0c, 0xfe, 0xfd, 0x04, 0x21,
  0x0b, 0x32, 0xe0, 0x01, 0xf1, 0x06, 0xfd, 0xfb, 0xd3, 0x40, 0x08, 0x10,
  0xc9, 0xe3, 0x1a, 0x30, 0xe0, 0xcd, 0xc1, 0xf3, 0xcc, 0xfe, 0x1f, 0x30,
  0xf5, 0xcf, 0x01, 0x26, 0x37, 0xee, 0xfd, 0x1d, 0xd0, 0x25, 0xbe, 0xbd,
  0x13, 0xe4, 0xe4, 0x08, 0x36, 0x41, 0xeb, 0x0b, 0xf4, 0x1b, 0xc0, 0xe7,
  0x47, 0x27, 0x15, 0x05, 0xc5, 0x0b, 0x1c, 0x28, 0xf8, 0x38, 0x9d, 0x37,
  0x03, 0x5a, 0xfc, 0xc1, 0xea, 0xcf, 0xc7, 0x4d, 0x54, 0x4c, 0xdd, 0x18,
  0xff, 0x07, 0xe1, 0x03, 0x62, 0xfd, 0x40, 0x48, 0x7b, 0x79, 0x03, 0xd4,
  0xf0, 0xd8, 0xc8, 0xfe, 0x04, 0x00, 0xe7, 0x37, 0xec, 0x2c, 0x48, 0xc7,
  0xc7, 0xc7, 0xe4, 0x44, 0x3b, 0x27, 0x1b, 0x43, 0x02, 0x36, 0xbd, 0x11,
  0xe4, 0xf0, 0x3d, 0x31, 0x02, 0x04, 0x23, 0x1b, 0x0f, 0x37, 0xe6, 0x01,
  0xc2, 0xda, 0x2d, 0xc0, 0xf5, 0x41, 0xef, 0xf1, 0x3c, 0x46, 0xcc, 0x09,
  0xec, 0xc9, 0x31, 0xf5, 0x3f, 0x05, 0x38, 0xf7, 0x2b, 0xbc, 0xba, 0x03,
  0x36, 0xfb, 0x18, 0x1a, 0x48, 0xb9, 0x22, 0x67, 0xf4, 0x41, 0xea, 0x32,
  0x34, 0x37, 0x08, 0xe1, 0xd3, 0x1b, 0x19, 0x09, 0x6d, 0xf0, 0x08, 0x27,
  0x14, 0xd7, 0x00, 0x41, 0xd2, 0x9d, 0xe9, 0xfe, 0x0c, 0x07, 0xd1, 0xfb,
  0xfb, 0xd7, 0x1c, 0xca, 0xf6, 0xf9, 0xc3, 0x42, 0xda, 0x17, 0x0d, 0x37,
  0xf8, 0xd8, 0x1d, 0x1a, 0xf6, 0xed, 0x0a, 0x40, 0xbd, 0xd5, 0xfc, 0xea,
  0xd6, 0xee, 0x01, 0xf8, 0x24, 0x24, 0x19, 0xc6, 0x2d, 0x03, 0xe4, 0xd9,
  0x01, 0xff, 0xde, 0x29, 0x01, 0xb9, 0xc0, 0x1d, 0x36, 0x27, 0xbc, 0xc7,
  0x0e, 0xf5, 0xc2, 0x02, 0x26, 0x13, 0xc6, 0xf0, 0x1d, 0x00, 0x09, 0xdc,
  0xc4, 0xc3, 0xc7, 0x47, 0x2b, 0x14, 0x12, 0x46, 0xb1, 0xd3, 0xcf, 0xd7,
  0x09, 0x9a, 0xf1, 0xf9, 0x44, 0x34, 0x20, 0xbd, 0xff, 0xf4, 0x75, 0x35,
  0xf2, 0xee, 0x50, 0x5e, 0x48, 0x81, 0xfd, 0xf5, 0xbf, 0x17, 0xfe, 0x63,
  0x36, 0xc8, 0xce, 0x34, 0xb9, 0x16, 0xde, 0x2a, 0xe1, 0xbd, 0x37, 0x40,
  0xc3, 0x42, 0xba, 0x43, 0x0a, 0x48, 0x19, 0x3e, 0xee, 0xb8, 0xd8, 0xf8,
  0x0d, 0x1e, 0xe5, 0x1c, 0xfc, 0x28, 0xdd, 0xd1, 0xce, 0x2a, 0x16, 0x39,
  0x03, 0xf1, 0xb8, 0xe2, 0x19, 0x36, 0x3c, 0xc7, 0xe8, 0x48, 0xdb, 0xfe,
  0xe1, 0x0f, 0x43, 0x20, 0xef, 0x29, 0xbd, 0xd9, 0x0a, 0xf6, 0xe8, 0xbf,
  0xd1, 0xee, 0xbf, 0x2d, 0x39, 0x3b, 0x0a, 0x4f, 0x48, 0xd6, 0x23, 0xc5,
  0xc9, 0x1d, 0xec, 0xe1, 0xbf, 0x4a, 0xda, 0x1e, 0x0f, 0xdd, 0x3a, 0x07,
  0xe5, 0xd6, 0xd7, 0x4a, 0x54, 0xf2, 0x03, 0x29, 0xea, 0xca, 0x0d, 0x3b,
  0x2a, 0x1c, 0x0c, 0x2d, 0xd6, 0x3c, 0xff, 0xd6, 0xb9, 0xbb, 0x1c, 0x33,
  0xeb, 0x03, 0xcc, 0x25, 0x04, 0x2c, 0xbc, 0xd0, 0xda, 0x41, 0xe2, 0x08,
  0x29, 0x04, 0xe9, 0xd9, 0x19, 0xfd, 0xb7, 0x23, 0x26, 0x17, 0xff, 0xcd,
  0x18, 0x0a, 0xfa, 0x22, 0x0f, 0xdb, 0x04, 0x31, 0x12, 0xe1, 0xff, 0x0b,
  0x0d, 0x1e, 0x25, 0x2a, 0x11, 0x04, 0xf0, 0xda, 0x0c, 0x18, 0x2e, 0xd8,
  0xdc, 0x0a, 0xf1, 0xe0, 0x06, 0x0b, 0xe6, 0x14, 0xed, 0xe8, 0xc0, 0x0c,
  0xe5, 0xb7, 0xe4, 0x0c, 0x7f, 0x2a, 0x40, 0xf4, 0xc0, 0xfd, 0x31, 0x56,
  0x24, 0xe1, 0xd7, 0xc0, 0xf1, 0x05, 0x03, 0x06, 0x06, 0xe1, 0x0b, 0x20,
  0x20, 0x0a, 0xe9, 0x15, 0x1d, 0x0b, 0x04, 0x23, 0x22, 0xd8, 0x08, 0x04,
  0xe3, 0xda, 0xe7, 0x1d, 0xe5, 0x0a, 0x09, 0xf2, 0x2c, 0x13, 0xe3, 0xf2,
  0x0d, 0x11, 0x0c, 0xd4, 0xe2, 0x10, 0x05, 0x26, 0xd3, 0x0d, 0x0f, 0x26,
  0x07, 0x16, 0xcd, 0x16, 0x17, 0x17, 0xe2, 0x24, 0xdb, 0x22, 0x16, 0x2c,
  0xdf, 0xd9, 0xe1, 0x33, 0xd3, 0x20, 0xf2, 0xe4, 0xf6, 0x2e, 0xe4, 0x04,
  0x12, 0x2f, 0xf3, 0xd9, 0x24, 0x4d, 0xea, 0xaa, 0x25, 0xe2, 0xc7, 0x2d,
  0xaa, 0x04, 0xe2, 0x20, 0xec, 0x23, 0xef, 0xf3, 0xea, 0x32, 0xf7, 0x1e,
  0x09, 0xf1, 0x09, 0xdb, 0x27, 0x39, 0xd8, 0x0d, 0xd0, 0xb3, 0x31, 0x0c,
  0x17, 0x1c, 0x32, 0xd1, 0x0b, 0xee, 0xff, 0x2d, 0x32, 0xf2, 0x10, 0x16,
  0x12, 0xf7, 0xdc, 0xf7, 0xd1, 0x2c, 0xdd, 0x2e, 0x23, 0x30, 0x19, 0xed,
  0xdd, 0x02, 0x0f, 0x32, 0x01, 0xf5, 0xd5, 0xea, 0xea, 0xe8, 0x26, 0xeb,
  0xfd, 0xe4, 0xf8, 0x0a, 0x01, 0xdf, 0x25, 0x30, 0xdd, 0x08, 0xf3, 0xd4,
  0xe7, 0xd8, 0x12, 0x13, 0x22, 0xda, 0x00, 0x0b, 0xdb, 0xce, 0xdc, 0xce,
  0xcf, 0xdb, 0x00, 0xe2, 0x1a, 0xf2, 0x13, 0xf8, 0xd4, 0x10, 0xf4, 0xe3,
  0x15, 0xc3, 0xe8, 0x15, 0xfa, 0xd5, 0xf7, 0xd0, 0xc9, 0xfb, 0xe7, 0x24,
  0x0d, 0x21, 0xfc, 0xd8, 0xf0, 0xcf, 0xed, 0x1a, 0x0c, 0xe1, 0xf6, 0xec,
  0x29, 0x08, 0x11, 0xf5, 0xcd, 0x33, 0x21, 0x13, 0x31, 0xd5, 0xd2, 0xcf,
  0x32, 0x2b, 0x0c, 0xff, 0x02, 0x0a, 0xeb, 0x1f, 0xe8, 0xf9, 0xd0, 0xf4,
  0xf3, 0xf6, 0xd7, 0x2b, 0xfe, 0xfd, 0x06, 0xd4, 0x32, 0xc9, 0xb1, 0xe5,
  0x2c, 0x08, 0x3b, 0xbf, 0x50, 0x4c, 0x4d, 0x08, 0xdf, 0x16, 0xb1, 0xc6,
  0xff, 0x02, 0x2c, 0xf9, 0xf2, 0x45, 0x46, 0x3e, 0x3d, 0x07, 0xc3, 0xef,
  0x33, 0x3d, 0xb3, 0xdc, 0x26, 0x3b, 0x03, 0x36, 0x29, 0x2c, 0x0f, 0x02,
  0x00, 0xdf, 0x55, 0x57, 0x05, 0x31, 0xe4, 0xc8, 0x45, 0xf7, 0x4b, 0xf1,
  0xc5, 0x55, 0x4c, 0xc7, 0xd6, 0x72, 0x36, 0xdb, 0xaf, 0x4f, 0x2d, 0xfe,
  0x09, 0xfb, 0x42, 0xc1, 0xed, 0x0e, 0x37, 0x2a, 0x37, 0xf9, 0xe6, 0x02,
  0x1c, 0x38, 0xb2, 0xe8, 0xbc, 0x32, 0x31, 0x15, 0x3d, 0x4b, 0x3f, 0x1e,
  0xda, 0x2a, 0xb7, 0xe8, 0xdd, 0x4f, 0xcf, 0x0c, 0xec, 0x29, 0xf4, 0xd4,
  0x44, 0x4c, 0xbd, 0x4a, 0xea, 0xb0, 0xda, 0x46, 0xfd, 0x4a, 0x05, 0x08,
  0xf5, 0x48, 0x12, 0xbd, 0x30, 0xf0, 0x26, 0x10, 0xec, 0x0c, 0xd1, 0x3a,
  0x06, 0xe9, 0xd4, 0x41, 0xe3, 0xcb, 0x3b, 0xc9, 0xba, 0xcc, 0xa5, 0x31,
  0x0c, 0xe1, 0xe9, 0x2f, 0xf1, 0xd0, 0xda, 0x26, 0x1a, 0xd4, 0x0e, 0xd1,
  0xde, 0x41, 0x00, 0x4a, 0xe6, 0x7f, 0x53, 0xf6, 0x3d, 0xb4, 0x1f, 0x50,
  0x13, 0xdb, 0xcf, 0x24, 0x34, 0xca, 0x2b, 0x33, 0xc9, 0x34, 0x01, 0x25,
  0x31, 0xb1, 0xba, 0x22, 0xcc, 0x3c, 0xdf, 0x2d, 0xbb, 0xb8, 0x1f, 0x06,
  0x42, 0xd1, 0xbc, 0x33, 0x05, 0x31, 0xe3, 0x36, 0xff, 0x03, 0xbb, 0xb0,
  0x4e, 0xe0, 0x12, 0xfc, 0x2d, 0xf8, 0x1c, 0x09, 0x11, 0x2c, 0xe8, 0xfa,
  0x27, 0xb7, 0xf3, 0x04, 0xf5, 0xfd, 0xba, 0x0d, 0x21, 0x51, 0x02, 0xd3,
  0x35, 0x3c, 0xc0, 0x0a, 0x2c, 0xee, 0xb6, 0xf4, 0xf3, 0xdb, 0xfb, 0x19,
  0x41, 0xf8, 0xc6, 0xc6, 0x41, 0xd0, 0x61, 0xc1, 0x25, 0xf0, 0xee, 0xfe,
  0x41, 0xff, 0xdc, 0x23, 0x44, 0xbf, 0x33, 0x44, 0xbe, 0x4a, 0xfa, 0x42,
  0xe3, 0x09, 0x0c, 0xea, 0x2f, 0xd3, 0x46, 0xb5, 0xdc, 0x3c, 0xb2, 0x0d,
  0x2f, 0xc3, 0xe6, 0x18, 0xb1, 0xdf, 0x22, 0x35, 0xe5, 0x4e, 0xef, 0x09,
  0x10, 0x0a, 0x44, 0xc0, 0xc1, 0xfd, 0xd8, 0x1a, 0xea, 0xcf, 0xf4, 0x50,
  0x25, 0xe4, 0x53, 0x31, 0xd3, 0xbe, 0xc7, 0x33, 0x45, 0xb7, 0xc1, 0x0d,
  0xce, 0x4b, 0xe5, 0x26, 0x49, 0xae, 0xaa, 0x3d, 0x43, 0xd3, 0x28, 0x3a,
  0x24, 0x3c, 0x0c, 0xec, 0xa8, 0x2d, 0xb4, 0x37, 0xbc, 0x8a, 0xf5, 0xba,
  0xcb, 0x23, 0x41, 0x21, 0xf1, 0xd8, 0x0b, 0xd9, 0x1b, 0xb2, 0x60, 0x7f,
  0xe5, 0x32, 0x4d, 0xd6, 0x16, 0xf4, 0xb6, 0x3e, 0xab, 0xce, 0xdd, 0xa4,
  0xab, 0x37, 0xcd, 0x48, 0xd8, 0x50, 0x08, 0xae, 0xf5, 0xda, 0x31, 0x1d,
  0x0a, 0x29, 0x51, 0x55, 0x25, 0x05, 0x53, 0x33, 0xeb, 0x54, 0xdb, 0x13,
  0xcd, 0x1a, 0xf2, 0x12, 0x2c, 0x4c, 0xbc, 0x05, 0x14, 0x50, 0xc6, 0x46,
  0x19, 0x48, 0xf4, 0x38, 0xfe, 0x35, 0xce, 0x4c, 0x02, 0xdf, 0x56, 0x19,
  0xac, 0xc2, 0x38, 0xb0, 0xcc, 0xf4, 0xb4, 0x2a, 0x0d, 0xef, 0xf5, 0xf3,
  0x3b, 0x55, 0xaf, 0x2f, 0x2c, 0x27, 0xf6, 0x3e, 0x2d, 0xa8, 0xf3, 0xb5,
  0x05, 0xd1, 0xd8, 0x2f, 0xd3, 0xf8, 0xe5, 0x2b, 0xf8, 0xb4, 0x39, 0x55,
  0xaf, 0xea, 0xc0, 0x03, 0xad, 0xc9, 0xcd, 0xcb, 0xab, 0x12, 0x72, 0xe8,
  0xc4, 0xb3, 0x4b, 0x4b, 0x38, 0xd2, 0xb8, 0xfb, 0x4b, 0x57, 0x03, 0xd8,
  0x05, 0xac, 0x40, 0xf3, 0xfe, 0xa7, 0xdb, 0xdd, 0xf4, 0xdd, 0xa7, 0xb5,
  0xcb, 0x2e, 0x06, 0x35, 0xd4, 0x0f, 0x28, 0x06, 0xb0, 0x05, 0x1a, 0xf3,
  0xc2, 0x2c, 0x0b, 0x14, 0xb5, 0x1a, 0xfd, 0x17, 0x22, 0xdc, 0x38, 0xb2,
  0xe6, 0x1e, 0xb5, 0x42, 0x2f, 0x14, 0x03, 0x0c, 0xcd, 0x0d, 0x46, 0xf6,
  0xb5, 0xba, 0xf5, 0xd3, 0xb7, 0xa8, 0xe2, 0x1a, 0x5c, 0xfd, 0xb6, 0x20,
  0x5b, 0xf1, 0xeb, 0xd3, 0x09, 0x03, 0x36, 0xfe, 0x34, 0x5b, 0x05, 0xf4,
  0xa8, 0x49, 0xf0, 0xd8, 0x56, 0x46, 0xb1, 0x19, 0xc8, 0x1c, 0xdf, 0xd5,
  0xdf, 0x56, 0xe9, 0x40, 0x43, 0x04, 0xbb, 0x3a, 0xd4, 0x1c, 0x3c, 0x3a,
  0xe7, 0xc8, 0xed, 0xba, 0xca, 0x57, 0xf4, 0x2f, 0x26, 0xd8, 0xff, 0xbb,
  0x18, 0x35, 0x2d, 0x53, 0xe1, 0xb5, 0xf1, 0xd1, 0xd9, 0x18, 0xdf, 0x22,
  0x0b, 0x2e, 0xe7, 0xfb, 0xea, 0x08, 0x1c, 0xda, 0xd8, 0x22, 0x21, 0xed,
  0xf0, 0x1a, 0xdd, 0xf3, 0xd4, 0xf9, 0xf3, 0x1c, 0xd5, 0xf1, 0x16, 0x24,
  0x1a, 0x2e, 0xee, 0xd7, 0xb4, 0x30, 0x15, 0x40, 0xe3, 0x22, 0x07, 0xd5,
  0x29, 0x19, 0x50, 0xdb, 0x52, 0x20, 0x7f, 0x08, 0xb9, 0xe3, 0x13, 0x2c,
  0xf8, 0xee, 0x1a, 0xe6, 0xf8, 0x26, 0x27, 0xeb, 0xfd, 0xf8, 0x2d, 0xd2,
  0xe6, 0xd7, 0xec, 0xda, 0xe1, 0xdc, 0xf8, 0x03, 0x2b, 0xe8, 0x05, 0xda,
  0x0d, 0xf8, 0x0c, 0xdb, 0xfb, 0xfd, 0xef, 0xec, 0xd1, 0x29, 0xe8, 0x17,
  0x2f, 0x17, 0xd4, 0x2d, 0x2c, 0x1a, 0xef, 0xd1, 0x06, 0xef, 0xee, 0x1f,
  0x12, 0xdb, 0xec, 0x1b, 0xe2, 0xf5, 0xee, 0xfa, 0x03, 0x20, 0x0f, 0xf9,
  0x13, 0xec, 0xf2, 0x22, 0x09, 0x24, 0xd0, 0x2b, 0x02, 0x2c, 0x00, 0x14,
  0x0b, 0xe0, 0xff, 0xea, 0xe2, 0x38, 0x03, 0x9d, 0x17, 0x0e, 0xad, 0x0b,
  0xcf, 0x3f, 0xe0, 0xe6, 0x11, 0x3f, 0xf4, 0xea, 0xe3, 0x31, 0x46, 0xe0,
  0xae, 0x28, 0xba, 0x06, 0xe4, 0x69, 0x1f, 0x0a, 0x02, 0xd1, 0x5b, 0xfb,
  0xd5, 0x19, 0xde, 0x1e, 0xda, 0x0a, 0x07, 0xe0, 0xf1, 0x11, 0x1d, 0xef,
  0x0f, 0x31, 0x15, 0xd0, 0xdb, 0x21, 0xf8, 0x1d, 0xe7, 0x22, 0xfe, 0xe1,
  0xed, 0xf5, 0xe5, 0x31, 0x10, 0x29, 0x21, 0x28, 0x07, 0x04, 0x0f, 0x2f,
  0x30, 0x03, 0x1f, 0x2e, 0x05, 0x0b, 0xfc, 0x2a, 0xf6, 0x0c, 0xf8, 0x23,
  0xfc, 0x2f, 0x1b, 0xf1, 0x31, 0x31, 0x0c, 0xd4, 0x1d, 0x17, 0xdc, 0x2b,
  0x0b, 0x29, 0x10, 0xe9, 0x13, 0xfb, 0x01, 0xef, 0xd1, 0x1b, 0xd5, 0xfa,
  0x08, 0x09, 0xf4, 0xf8, 0xe0, 0xe1, 0x18, 0xdd, 0xf1, 0xd9, 0x28, 0xeb,
  0xe1, 0xd1, 0x05, 0x00, 0xbb, 0xfb, 0x29, 0xbd, 0x0d, 0x20, 0xf4, 0xf5,
  0xe6, 0xdf, 0x1d, 0x00, 0x2f, 0xea, 0xfc, 0x02, 0xdf, 0xd9, 0x26, 0xfd,
  0xde, 0xf0, 0xf2, 0xf0, 0x1e, 0xd1, 0x17, 0xec, 0xed, 0x01, 0xf9, 0xf2,
  0x29, 0x17, 0xd1, 0x0b, 0xdf, 0x2b, 0xf0, 0x04, 0xc4, 0xfc, 0xe1, 0xb5,
  0x31, 0xbd, 0x12, 0xea, 0x16, 0x54, 0xb6, 0xd5, 0xcd, 0xe1, 0xb8, 0xf9,
  0xc5, 0xf3, 0x09, 0xce, 0x1c, 0x20, 0x1e, 0x20, 0xcd, 0x17, 0x1a, 0x0b,
  0xc9, 0x07, 0x26, 0x41, 0xaf, 0x1d, 0x02, 0xd2, 0xe3, 0x16, 0x0c, 0xc8,
  0xb0, 0xe9, 0xd5, 0x5b, 0x3b, 0xbe, 0x07, 0xb2, 0xc9, 0x31, 0xf1, 0x45,
  0xc9, 0xf0, 0xdf, 0xe2, 0x18, 0x61, 0xcc, 0x21, 0xda, 0x21, 0xe1, 0x1c,
  0x02, 0xbc, 0x2a, 0x48, 0xaf, 0x20, 0x3c, 0x42, 0xe3, 0x14, 0xe0, 0x37,
  0x09, 0x35, 0xce, 0x18, 0xd5, 0x4a, 0xcf, 0x43, 0x47, 0x07, 0xb7, 0x11,
  0x40, 0x46, 0x3c, 0xf9, 0x28, 0x01, 0x32, 0xb4, 0x53, 0x2b, 0xb2, 0x49,
  0xd4, 0x33, 0xb3, 0x1d, 0x0c, 0xd5, 0x4e, 0xf4, 0x07, 0x4f, 0xd9, 0x0a,
  0x41, 0xfb, 0xe1, 0xdd, 0x4b, 0xd4, 0x0c, 0x3e, 0x3d, 0xdb, 0xed, 0x24,
  0x35, 0x4b, 0x01, 0xbc, 0xba, 0x97, 0x0b, 0x12, 0x23, 0xba, 0x92, 0xe2,
  0xe6, 0xf0, 0x3c, 0x22, 0xd1, 0x17, 0x26, 0xd4, 0x97, 0xaa, 0xfd, 0x5e,
  0x3a, 0xb6, 0x2a, 0x8e, 0x0a, 0x81, 0xff, 0xe3, 0xff, 0xb9, 0xce, 0x9b,
  0xe7, 0x09, 0x16, 0x38, 0xfe, 0x2f, 0x36, 0x3e, 0xf2, 0xbb, 0x43, 0xc3,
  0x3d, 0xf3, 0xb6, 0x07, 0xb8, 0x39, 0x45, 0x2c, 0x43, 0xd6, 0x1a, 0xea,
  0x0b, 0xc6, 0xf5, 0x15, 0x0a, 0x2d, 0x47, 0x41, 0x01, 0xf7, 0xd7, 0x18,
  0x32, 0xe4, 0x1b, 0x02, 0xe7, 0x16, 0xcf, 0x3d, 0xc1, 0x31, 0xe1, 0x15,
  0xf4, 0x2d, 0x2e, 0xcc, 0x05, 0xfd, 0xb2, 0x49, 0xc7, 0xfd, 0x53, 0xc8,
  0x2e, 0xe4, 0x19, 0xdf, 0x4b, 0x26, 0xed, 0xd8, 0xa3, 0x5b, 0x57, 0x48,
  0x27, 0xec, 0x27, 0x23, 0x08, 0x02, 0x49, 0x1c, 0xbe, 0x39, 0x52, 0x43,
  0x48, 0x49, 0x62, 0xd6, 0x3d, 0xec, 0x43, 0xe0, 0x12, 0xde, 0xf6, 0x0b,
  0xbb, 0x47, 0xff, 0x0b, 0xcc, 0xd6, 0xb6, 0xda, 0xed, 0x36, 0x1d, 0x45,
  0xbb, 0xf5, 0x32, 0xe7, 0xbd, 0xd3, 0xf5, 0x1f, 0x0f, 0xff, 0xd6, 0xfe,
  0xae, 0x10, 0xfd, 0x1e, 0x4a, 0xf5, 0x0b, 0x15, 0xdc, 0xf3, 0x09, 0xc7,
  0x27, 0xfc, 0x39, 0x03, 0xff, 0xfb, 0x29, 0x18, 0x1a, 0x3a, 0xcd, 0xec,
  0xe7, 0xe4, 0xc8, 0x2f, 0x05, 0x2b, 0xf5, 0xfb, 0x12, 0xee, 0x32, 0x2f,
  0x36, 0xd3, 0xfc, 0x21, 0xf8, 0x39, 0x5c, 0xe8, 0xfe, 0xef, 0x1c, 0x37,
  0xbc, 0x21, 0x0b, 0xf8, 0xe5, 0x11, 0xca, 0xd8, 0x2b, 0x0e, 0xf7, 0xf5,
  0x0c, 0x2d, 0x25, 0xfc, 0x03, 0xf9, 0x32, 0x34, 0xe5, 0x59, 0xc5, 0x3c,
  0x08, 0x1f, 0xf8, 0xcb, 0xfd, 0x37, 0x19, 0x03, 0xc7, 0x23, 0xe2, 0xe7,
  0x23, 0xef, 0x15, 0x06, 0x16, 0xfb, 0xc9, 0x39, 0x08, 0x12, 0xd5, 0x15,
  0x2d, 0xc4, 0xfc, 0xdf, 0xcf, 0x17, 0x1c, 0x1a, 0x05, 0x3d, 0x14, 0xdb,
  0xce, 0x27, 0xfb, 0xeb, 0x1c, 0x0d, 0x10, 0xd1, 0xf1, 0x2f, 0xd1, 0xd0,
  0xf1, 0x1e, 0xcd, 0x3a, 0x3d, 0xeb, 0xf7, 0xd0, 0x39, 0x09, 0xcc, 0xe1,
  0x24, 0x00, 0xfc, 0x0f, 0x26, 0x79, 0xed, 0xa3, 0xd3, 0xeb, 0x14, 0xf1,
  0x41, 0xed, 0xd1, 0xfe, 0x35, 0xe3, 0xfd, 0x11, 0x38, 0x13, 0x08, 0x0a,
  0xa3, 0x25, 0x3e, 0xf4, 0x58, 0x4f, 0xda, 0xd3, 0x33, 0x18, 0x7f, 0x2a,
  0x28, 0x20, 0x36, 0xc8, 0xf7, 0xe2, 0xdc, 0xd9, 0xf7, 0xd0, 0x07, 0x24,
  0xf9, 0xef, 0x18, 0xdd, 0xe1, 0x1f, 0x1b, 0xf2, 0xec, 0x3b, 0x32, 0xca,
  0x14, 0x1d, 0x0a, 0xe1, 0x1c, 0x25, 0x35, 0x1d, 0xe7, 0xf5, 0xc4, 0xec,
  0x34, 0x1c, 0xdf, 0x18, 0xc4, 0xd6, 0xd8, 0xe4, 0xeb, 0x14, 0x37, 0x0a,
  0xdc, 0x0b, 0xe1, 0x28, 0xf4, 0x0d, 0xd5, 0x03, 0xc4, 0xe6, 0x3b, 0xf2,
  0xcb, 0xd6, 0x21, 0x1e, 0xcd, 0xb0, 0xe5, 0xa2, 0xeb, 0xa0, 0xef, 0xde,
  0xfd, 0xb8, 0x06, 0x2a, 0xdb, 0x01, 0xd0, 0xd7, 0xff, 0xc2, 0x2b, 0xcd,
  0x9c, 0xde, 0x09, 0xe1, 0xf9, 0xf6, 0xb6, 0xdf, 0xd3, 0xf4, 0xe9, 0xfc,
  0x20, 0xee, 0x0a, 0xe9, 0x34, 0xc8, 0x08, 0xc6, 0xcc, 0x28, 0x26, 0xf3,
  0x38, 0xee, 0xd8, 0xcb, 0x39, 0x0f, 0xe8, 0xd8, 0xc7, 0xce, 0x18, 0x19,
  0x28, 0xdf, 0xef, 0xed, 0xfe, 0xc9, 0x18, 0x11, 0x3c, 0xf1, 0xd4, 0xfb,
  0xe9, 0xf0, 0xea, 0x12, 0x1d, 0xd6, 0xea, 0x2a, 0xf3, 0xd4, 0x33, 0x23,
  0x12, 0x24, 0xe1, 0xd8, 0xfe, 0xd1, 0xd6, 0xcf, 0xdb, 0x16, 0xfb, 0xe4,
  0x18, 0xd5, 0x40, 0xd3, 0xe5, 0x12, 0x40, 0xc0, 0xe6, 0x1c, 0xf2, 0x0f,
  0xe6, 0x18, 0x0a, 0xc2, 0x20, 0x2f, 0xd0, 0xfd, 0x06, 0x3a, 0xba, 0xb3,
  0xe6, 0x12, 0x17, 0x12, 0x35, 0xfd, 0xb9, 0x23, 0x04, 0x7a, 0x02, 0x41,
  0x0b, 0xf8, 0xe0, 0x26, 0xe2, 0x21, 0x3c, 0xe0, 0xc6, 0xf7, 0x40, 0x13,
  0xd4, 0xf4, 0xe9, 0xd8, 0x3f, 0x33, 0xd7, 0x3f, 0xed, 0x19, 0xe2, 0x00,
  0x1d, 0xcc, 0xfa, 0x13, 0x08, 0x17, 0x33, 0x06, 0x11, 0x3a, 0xc2, 0xc6,
  0x30, 0x0e, 0xee, 0xd1, 0x05, 0x1d, 0x39, 0xc9, 0x0b, 0xc4, 0x0f, 0xda,
  0x2f, 0xe9, 0xd1, 0xfb, 0xc7, 0xf1, 0xd4, 0x1c, 0xc2, 0xdf, 0x19, 0x13,
  0xd2, 0xd5, 0xc4, 0xf1, 0x65, 0x10, 0x3f, 0x7f, 0xf6, 0x37, 0x28, 0xd9,
  0xe3, 0xc1, 0xec, 0xcc, 0x2b, 0x10, 0xd0, 0x28, 0x03, 0xe6, 0xee, 0xef,
  0x2d, 0xdc, 0x16, 0x17, 0x1e, 0xf2, 0x2a, 0xea, 0x37, 0x0e, 0x2d, 0x75,
  0xdf, 0x28, 0xe4, 0xe8, 0x18, 0x14, 0xdf, 0x1c, 0x1d, 0x28, 0xe4, 0x03,
  0xc1, 0x10, 0x2a, 0xd3, 0x15, 0x0f, 0xed, 0xe6, 0x0c, 0x02, 0xec, 0xfc,
  0x25, 0xe4, 0xd1, 0x0b, 0xc3, 0x0a, 0xf1, 0xdd, 0x0f, 0xc6, 0x3b, 0xd3,
  0x38, 0xd9, 0xe5, 0xd8, 0x3f, 0xe8, 0x08, 0xfc, 0xcc, 0x05, 0xc5, 0x3b,
  0x04, 0x36, 0x21, 0xfa, 0xf4, 0xdb, 0xf8, 0x15, 0xfc, 0x0f, 0x22, 0x03,
  0xd8, 0x22, 0x17, 0x22, 0x26, 0x24, 0x39, 0x20, 0xba, 0xbf, 0xc3, 0x2b,
  0x40, 0xcd, 0x29, 0x18, 0xce, 0x01, 0xc5, 0x3b, 0x0f, 0xed, 0xff, 0xf1,
  0xd4, 0x17, 0xde, 0xfe, 0x20, 0x25, 0x1f, 0x35, 0x16, 0xe3, 0x01, 0xcb,
  0xe4, 0xf2, 0xda, 0xe9, 0x36, 0x11, 0x31, 0x1e, 0xfd, 0xed, 0xdf, 0xd0,
  0xce, 0xff, 0x18, 0xfc, 0xd1, 0x28, 0xe9, 0x26, 0xe2, 0xea, 0xff, 0x2e,
  0x11, 0xe3, 0x0f, 0x19, 0x2d, 0xc2, 0x3a, 0xea, 0x33, 0x33, 0x12, 0x33,
  0xe9, 0xf5, 0xd8, 0x0e, 0x2b, 0xe6, 0xe8, 0x0f, 0xf5, 0x13, 0x24, 0x30,
  0xda, 0xdd, 0xfc, 0xdb, 0x05, 0x34, 0xf1, 0x1d, 0xfc, 0xd1, 0xe5, 0xd6,
  0xde, 0xf1, 0x32, 0x27, 0x17, 0x93, 0xdc, 0x07, 0xf2, 0x2b, 0x06, 0x37,
  0x24, 0x19, 0x36, 0xe7, 0xef, 0xe2, 0xd2, 0x16, 0xeb, 0x31, 0x41, 0x7f,
  0xf6, 0x38, 0x30, 0xf5, 0xc9, 0xcd, 0x3b, 0xd5, 0x2a, 0x10, 0x32, 0xdf,
  0xec, 0xe4, 0xe0, 0x04, 0xe7, 0x29, 0xd7, 0x0b, 0xe0, 0xd5, 0xfc, 0x04,
  0xe1, 0xd4, 0x0f, 0xf6, 0x20, 0xf5, 0x31, 0x24, 0x2f, 0xec, 0x08, 0xfb,
  0x1c, 0xd7, 0x0f, 0x22, 0x27, 0xd9, 0xef, 0xde, 0xcf, 0xd9, 0x20, 0x02,
  0x1a, 0xf9, 0x22, 0x22, 0xf7, 0x2b, 0xfe, 0xe8, 0x0e, 0x06, 0x0e, 0xd9,
  0x09, 0x30, 0xd7, 0xdc, 0xea, 0xe6, 0x26, 0xdb, 0xe7, 0xd1, 0xd3, 0xe6,
  0x33, 0x2c, 0x2a, 0xfc, 0x16, 0xde, 0xfd, 0x2c, 0x14, 0x24, 0x49, 0x21,
  0x0a, 0xe4, 0x38, 0xd6, 0xdd, 0x11, 0xef, 0x24, 0x29, 0xb4, 0xf5, 0x14,
  0x1e, 0xc8, 0x45, 0x27, 0x12, 0xa0, 0x2c, 0x1e, 0xfa, 0x35, 0xb0, 0xf2,
  0xcd, 0x0c, 0x13, 0xef, 0xe1, 0xee, 0x0d, 0x1d, 0xee, 0x13, 0xd6, 0xee,
  0x07, 0xd3, 0x04, 0x1e, 0xf6, 0x2c, 0x01, 0xfd, 0xef, 0x1c, 0x2d, 0x15,
  0xcd, 0xe4, 0xe1, 0xe8, 0x12, 0x25, 0x32, 0x1c, 0xe7, 0x25, 0xf0, 0xfe,
  0x0e, 0x1c, 0x2f, 0xd4, 0x14, 0x28, 0x1c, 0x28, 0x11, 0xea, 0xd4, 0x30,
  0x04, 0xcc, 0x32, 0xcd, 0xd7, 0xfb, 0xd0, 0x07, 0xda, 0xd6, 0x0b, 0xcb,
  0x16, 0x29, 0x22, 0xe5, 0x10, 0x30, 0xeb, 0x1b, 0xe1, 0x29, 0xde, 0xf9,
  0xea, 0xe7, 0xcd, 0xef, 0x26, 0xf6, 0x20, 0x29, 0x0f, 0x0f, 0x1f, 0x22,
  0xe2, 0x0b, 0x43, 0x48, 0x1f, 0x0b, 0xef, 0x16, 0x16, 0x16, 0xe7, 0xde,
  0x03, 0x1e, 0xf8, 0x2d, 0x08, 0xea, 0x17, 0xf0, 0x02, 0xe2, 0x23, 0x34,
  0x21, 0x0f, 0x23, 0x02, 0x15, 0xde, 0x03, 0x2c, 0xfc, 0xff, 0x07, 0x27,
  0x05, 0xe4, 0x21, 0x25, 0x1d, 0x23, 0xd1, 0xf5, 0x0b, 0xfc, 0xc6, 0x07,
  0x04, 0xf4, 0x10, 0x12, 0xeb, 0xd1, 0x18, 0x26, 0x1c, 0x38, 0xd3, 0xc2,
  0xe5, 0xd9, 0x08, 0xdc, 0x2f, 0x04, 0x33, 0x05, 0xe0, 0xe5, 0xf2, 0x19,
  0x36, 0x24, 0x32, 0xd5, 0x01, 0x86, 0xf2, 0x40, 0x50, 0x1c, 0xec, 0x1e,
  0x17, 0x26, 0x16, 0xd2, 0xe2, 0x1f, 0xdb, 0x0a, 0x48, 0x17, 0x21, 0x23,
  0xe8, 0xf0, 0x16, 0x64, 0x05, 0xe4, 0x07, 0x13, 0x0f, 0xb0, 0x3f, 0xb0,
  0xea, 0xcd, 0x0b, 0xca, 0xf4, 0xe0, 0xf0, 0xea, 0x18, 0xd2, 0xec, 0x36,
  0x20, 0xde, 0x18, 0xf3, 0xcf, 0x36, 0xd6, 0xc5, 0xe8, 0x16, 0xe1, 0xf3,
  0x23, 0x1f, 0xf7, 0xcc, 0xe8, 0x1f, 0x0f, 0x39, 0x04, 0xf0, 0xeb, 0x24,
  0x1f, 0xfc, 0x10, 0xcd, 0xee, 0x3c, 0xfb, 0xf6, 0xd1, 0x1f, 0xe9, 0x14,
  0xf1, 0xc2, 0x35, 0xfd, 0x15, 0x35, 0x20, 0xee, 0x07, 0x11, 0x34, 0xc9,
  0xe8, 0xf7, 0xcf, 0xda, 0xc9, 0xe6, 0x42, 0x27, 0x11, 0x01, 0x56, 0x0b,
  0x4b, 0xa8, 0x2f, 0xd3, 0xbf, 0x90, 0x1a, 0x40, 0x4e, 0xe3, 0x85, 0xef,
  0x1e, 0xbb, 0x5d, 0xf3, 0xd6, 0xbe, 0x45, 0xe3, 0x1c, 0x56, 0x81, 0x50,
  0x13, 0x1b, 0xde, 0x05, 0x27, 0x29, 0x03, 0xcb, 0xd0, 0x1e, 0xd6, 0x17,
  0x00, 0x09, 0x00, 0x20, 0x10, 0x30, 0xe4, 0x34, 0x1d, 0xca, 0xc9, 0x1b,
  0x2f, 0x1a, 0x13, 0x27, 0xcc, 0xd6, 0x07, 0xec, 0x01, 0x12, 0xd4, 0xde,
  0xd1, 0x37, 0xff, 0xe7, 0x32, 0xec, 0x36, 0xc6, 0xf7, 0x2f, 0x1c, 0xfb,
  0x0c, 0xff, 0xc7, 0xe9, 0xcd, 0x10, 0xd1, 0x1e, 0xd6, 0xd8, 0xdd, 0xe4,
  0x25, 0xcd, 0xf6, 0xc1, 0xd9, 0x4c, 0x0b, 0xf2, 0x02, 0x4c, 0xf0, 0xe4,
  0x0d, 0x25, 0x2e, 0xb8, 0x16, 0x0e, 0xf3, 0xff, 0x2e, 0x29, 0x08, 0x08,
  0x26, 0x03, 0xda, 0x1d, 0xec, 0xed, 0x0e, 0xe6, 0x12, 0x0e, 0xe3, 0x1f,
  0x03, 0xdd, 0x19, 0xe1, 0xfc, 0x27, 0x1e, 0x28, 0x34, 0xe1, 0x33, 0x26,
  0x05, 0xd1, 0x2a, 0xdd, 0x3b, 0xf7, 0xcd, 0xcb, 0x28, 0xd4, 0x04, 0x10,
  0x00, 0x3c, 0x38, 0xfb, 0xd6, 0x1c, 0x14, 0x38, 0xca, 0xc7, 0x05, 0x03,
  0x15, 0x30, 0x17, 0x34, 0x16, 0x09, 0x39, 0x35, 0xed, 0x42, 0x36, 0x3a,
  0xef, 0xca, 0xeb, 0x23, 0xc6, 0xca, 0xfc, 0xf6, 0xde, 0x28, 0xe0, 0xcb,
  0xc0, 0xd1, 0x14, 0xc5, 0xee, 0xa5, 0xf5, 0x1d, 0x28, 0x72, 0xf9, 0x47,
  0x03, 0x7f, 0xbf, 0xb7, 0x2c, 0xed, 0xaf, 0x17, 0xf5, 0x5f, 0x23, 0xde,
  0x94, 0xf0, 0x37, 0x0a, 0xfb, 0xcd, 0x0a, 0xc2, 0x1a, 0x4c, 0x29, 0xd8,
  0xc2, 0xec, 0x42, 0xc6, 0xd0, 0xe5, 0x1c, 0xdf, 0xd0, 0x32, 0x3e, 0x1b,
  0x30, 0xcd, 0x2c, 0xf0, 0x2d, 0xd2, 0xe7, 0x35, 0xdd, 0x37, 0x1c, 0xfd,
  0xf1, 0x25, 0xd3, 0x3c, 0x01, 0xf5, 0x3c, 0x2a, 0xda, 0xf8, 0x0b, 0xec,
  0xba, 0x34, 0xcc, 0xcb, 0xcc, 0xbf, 0x1d, 0xd8, 0xfe, 0x3f, 0x06, 0x17,
  0x0e, 0x34, 0xec, 0xc6, 0xf8, 0x15, 0x3c, 0x3b, 0xef, 0xd8, 0xdc, 0xd3,
  0x2e, 0xd1, 0x0a, 0xfc, 0x4a, 0xfb, 0x12, 0x73, 0xfd, 0x1b, 0x7f, 0xed,
  0xfb, 0xc5, 0x02, 0x02, 0x0d, 0xcf, 0xe9, 0x48, 0x3c, 0x05, 0xae, 0xf1,
  0x51, 0xec, 0xe7, 0x32, 0x1a, 0xcc, 0x0c, 0xeb, 0x3e, 0x4a, 0xd2, 0x75,
  0x07, 0x2e, 0x08, 0xfd, 0xdd, 0xcf, 0x44, 0xda, 0x0f, 0x36, 0x40, 0xe3,
  0x2b, 0xe1, 0xf2, 0xf8, 0xcd, 0x2c, 0x29, 0xf2, 0x3b, 0x44, 0xfa, 0x2c,
  0x36, 0x29, 0x42, 0xe1, 0x27, 0x3e, 0xdd, 0x15, 0x0a, 0x44, 0xbd, 0x32,
  0xff, 0x41, 0x3d, 0xd5, 0x28, 0x08, 0x03, 0xe3, 0xdb, 0xe1, 0xdf, 0x0c,
  0xd8, 0xea, 0xf4, 0xca, 0x08, 0x1a, 0x2e, 0x17, 0x06, 0x14, 0x2f, 0xbd,
  0x11, 0xe1, 0xc4, 0x0c, 0xe8, 0x15, 0x3d, 0xfe, 0xc4, 0xf2, 0x24, 0xd8,
  0xc1, 0x2f, 0x3e, 0x22, 0xfe, 0x3f, 0x0d, 0x52, 0xe8, 0x26, 0x26, 0xe6,
  0xd6, 0x2c, 0xdc, 0xff, 0xdf, 0x0e, 0xe0, 0x45, 0xe1, 0xfa, 0x72, 0xde,
  0xd3, 0xbb, 0x3d, 0x35, 0x0c, 0x29, 0x05, 0x1d, 0xfb, 0xbe, 0xe6, 0x39,
  0xfd, 0x1b, 0x02, 0x25, 0x24, 0xbc, 0xbb, 0x3b, 0xbb, 0xf9, 0x29, 0x2b,
  0x09, 0xbb, 0xd9, 0xe0, 0xea, 0x10, 0xc5, 0x0d, 0x32, 0x0b, 0x21, 0xfc,
  0xf1, 0x22, 0xef, 0xd7, 0x12, 0xd1, 0x04, 0x29, 0xd7, 0xf3, 0xfe, 0xd2,
  0xdb, 0x0a, 0xf0, 0x23, 0xf5, 0x0e, 0x2f, 0xf5, 0x1d, 0xf4, 0xfe, 0x04,
  0x15, 0xdf, 0x24, 0xed, 0x10, 0xa5, 0xfd, 0x10, 0x10, 0xe0, 0x18, 0x35,
  0x3e, 0x0d, 0x0d, 0xd3, 0xcf, 0xd4, 0x13, 0x4b, 0x36, 0x17, 0x24, 0x44,
  0xdb, 0x09, 0xfd, 0x73, 0x34, 0xf5, 0x0c, 0x17, 0x39, 0xee, 0x31, 0x26,
  0x23, 0xe9, 0xf0, 0x00, 0xf3, 0xf9, 0x05, 0xe1, 0x1b, 0x23, 0xf0, 0x25,
  0xe3, 0x0e, 0x12, 0x0b, 0xcf, 0x0f, 0xfa, 0xe7, 0xcd, 0xe8, 0x14, 0xed,
  0xda, 0xd1, 0x22, 0xde, 0x05, 0x03, 0x17, 0xf1, 0x20, 0x2a, 0x24, 0x05,
  0x2b, 0xf6, 0x09, 0xe1, 0x06, 0xf4, 0xfc, 0x13, 0x30, 0x12, 0x06, 0xe8,
  0xe4, 0xfe, 0xcf, 0xf1, 0x32, 0x0f, 0xfa, 0xe9, 0xf7, 0x04, 0x22, 0x11,
  0x18, 0xcf, 0xd0, 0x0d, 0xe3, 0xa1, 0x29, 0x7f, 0x2d, 0x09, 0x60, 0x13,
  0x35, 0xda, 0x09, 0xcc, 0x15, 0xdb, 0x30, 0x28, 0xe9, 0xe0, 0xc6, 0xeb,
  0x48, 0xfe, 0x37, 0xf1, 0x1b, 0xa2, 0x2f, 0x1e, 0xeb, 0xf1, 0xa3, 0xf8,
  0x0e, 0x30, 0x0e, 0xf1, 0x0e, 0x25, 0x09, 0xea, 0xcf, 0xf4, 0x11, 0x32,
  0x2c, 0xe5, 0xf7, 0xee, 0x1c, 0xe6, 0x29, 0x31, 0x25, 0x06, 0xef, 0xef,
  0xe3, 0x27, 0xe4, 0x0a, 0xd7, 0xf9, 0xd8, 0x0b, 0x29, 0x17, 0x19, 0x13,
  0xfb, 0x1c, 0xe3, 0xe9, 0xf1, 0xe4, 0x09, 0x09, 0x0a, 0x05, 0x0c, 0x32,
  0xf1, 0x31, 0x2f, 0x23, 0x23, 0x0b, 0xec, 0xee, 0x25, 0xdc, 0x23, 0xef,
  0xef, 0x28, 0xfd, 0x07, 0x1d, 0x34, 0xe0, 0xe3, 0xfc, 0x27, 0xe8, 0xee,
  0xf4, 0xfe, 0xcf, 0x08, 0xff, 0xe0, 0xf2, 0xf4, 0x25, 0xdc, 0xf6, 0x0d,
  0x08, 0xe7, 0xb5, 0x29, 0x1b, 0x25, 0x27, 0xd8, 0x02, 0x09, 0xde, 0xed,
  0x17, 0x22, 0xe1, 0xe8, 0xfa, 0xeb, 0xda, 0xed, 0xfc, 0x0f, 0xd1, 0xdb,
  0xff, 0x2f, 0x0c, 0xfd, 0xe6, 0x18, 0xf5, 0x0b, 0x26, 0x16, 0x18, 0x1f,
  0xe2, 0xd1, 0x0e, 0xf2, 0xe4, 0xf2, 0xe3, 0xea, 0x2c, 0xd3, 0x14, 0x13,
  0x2b, 0xd4, 0x14, 0xdd, 0x27, 0xf4, 0xc9, 0xc5, 0xc5, 0xee, 0xdf, 0x0a,
  0xfc, 0xf0, 0x06, 0x1c, 0xc4, 0x1b, 0xd9, 0xde, 0x3c, 0xc0, 0xee, 0x09,
  0x37, 0xe3, 0x1d, 0x0e, 0xc7, 0x9c, 0x4b, 0x23, 0x33, 0x5e, 0x79, 0x09,
  0x38, 0x14, 0x17, 0x05, 0x37, 0xe1, 0xea, 0x15, 0x40, 0xe5, 0xee, 0x17,
  0x1a, 0x1c, 0x3c, 0x75, 0x1c, 0xf3, 0x05, 0xf7, 0x51, 0x71, 0xb3, 0x45,
  0xe3, 0xc4, 0x1c, 0x0f, 0xe7, 0xf2, 0x1a, 0x06, 0x27, 0x0a, 0x00, 0x38,
  0x1b, 0x43, 0x14, 0x09, 0xc1, 0x26, 0xea, 0x1c, 0x33, 0xff, 0xf5, 0x28,
  0xea, 0x34, 0xe9, 0xca, 0xfe, 0xe4, 0xf5, 0x3a, 0x08, 0xbf, 0x01, 0xf7,
  0xf2, 0x0d, 0x29, 0xcd, 0x0c, 0x24, 0x2b, 0xd9, 0x11, 0xea, 0x05, 0xf1,
  0x0c, 0x38, 0xe6, 0x20, 0x21, 0x1a, 0x27, 0xee, 0xef, 0xdf, 0xeb, 0xd5,
  0x1f, 0x24, 0xed, 0x08, 0xff, 0xf7, 0xfc, 0x4f, 0x41, 0x46, 0x07, 0x1b,
  0xf6, 0xd4, 0xb8, 0x30, 0xd3, 0x11, 0xfe, 0x64, 0x40, 0xff, 0xfe, 0xc3,
  0x5c, 0xd7, 0x4c, 0x1b, 0xec, 0xde, 0x34, 0xd4, 0x13, 0x38, 0x00, 0x24,
  0x33, 0xca, 0x09, 0x3b, 0x12, 0x19, 0xc3, 0x18, 0xfd, 0x0b, 0x10, 0xe6,
  0x35, 0x36, 0xf1, 0xf1, 0xc5, 0x2e, 0x23, 0x08, 0x24, 0x19, 0x2b, 0x27,
  0x26, 0x13, 0xc5, 0x28, 0xf9, 0x0f, 0x42, 0x3d, 0xbe, 0x39, 0x00, 0xfb,
  0xf4, 0x11, 0x04, 0x38, 0xd4, 0x13, 0x1f, 0x16, 0x39, 0x26, 0xf2, 0xf4,
  0x10, 0x3c, 0x38, 0xf6, 0xf1, 0xfc, 0xdf, 0x1e, 0xcf, 0x1d, 0xdc, 0xf0,
  0x12, 0x3b, 0xf3, 0x42, 0x23, 0xdb, 0x05, 0xf6, 0xbb, 0xf7, 0x81, 0xeb,
  0xd6, 0x2d, 0xb0, 0xcc, 0xf6, 0xa8, 0xf0, 0xdc, 0xb9, 0xa5, 0x48, 0x36,
  0x9d, 0x2c, 0xb0, 0xba, 0x0b, 0x13, 0xf8, 0xed, 0x0b, 0xe3, 0x64, 0xf4,
  0x29, 0xf8, 0xc8, 0xc6, 0x10, 0x0f, 0x32, 0x02, 0x24, 0x31, 0x13, 0x3d,
  0x36, 0xde, 0xd9, 0x3c, 0x3a, 0xc3, 0x06, 0xd4, 0xc5, 0x3d, 0xf4, 0x20,
  0x25, 0xdf, 0xeb, 0xf9, 0x2d, 0xff, 0xcf, 0xe2, 0xfa, 0x05, 0x15, 0xe6,
  0x1b, 0xd2, 0xe9, 0x1c, 0xdc, 0xd9, 0x0b, 0xe4, 0xf9, 0xdc, 0x02, 0xfb,
  0xd4, 0xe7, 0xdc, 0xf8, 0x0c, 0xe6, 0x06, 0xfb, 0xf4, 0xf7, 0x1e, 0x04,
  0x0c, 0x05, 0xe6, 0xf9, 0xf1, 0xa1, 0xf2, 0xe1, 0xff, 0x48, 0x4b, 0xf5,
  0x14, 0x01, 0x0e, 0xfd, 0x29, 0xd5, 0xdf, 0x34, 0xec, 0x3a, 0xd5, 0xe5,
  0x10, 0xce, 0xe6, 0x18, 0x11, 0x13, 0x02, 0x2a, 0x2a, 0x54, 0xca, 0x1d,
  0x14, 0x0f, 0xf5, 0xe8, 0xe6, 0xff, 0x06, 0x14, 0x0c, 0x0b, 0x01, 0xd8,
  0x16, 0x12, 0x20, 0x32, 0xee, 0xd8, 0x20, 0xe0, 0x16, 0x21, 0xed, 0x0a,
  0xda, 0xe6, 0xf0, 0xfe, 0x07, 0xd9, 0xe4, 0x2c, 0xdb, 0x2d, 0xd8, 0xe7,
  0x0a, 0x1d, 0xce, 0xda, 0xe2, 0xe7, 0xfb, 0xf9, 0xe7, 0xf8, 0x23, 0xf9,
  0xf0, 0xe3, 0xee, 0xee, 0x0a, 0xcd, 0xdd, 0x23, 0x19, 0xf1, 0xfe, 0xe0,
  0xef, 0x0b, 0xd6, 0x03, 0x1b, 0xea, 0x37, 0x5f, 0x07, 0x06, 0x7f, 0x16,
  0x25, 0xf0, 0x1b, 0x13, 0x0a, 0xd7, 0x21, 0xf0, 0x29, 0xfa, 0x02, 0x0c,
  0x60, 0xda, 0x0b, 0x08, 0x43, 0x13, 0xee, 0xcf, 0x0a, 0x4f, 0x08, 0x09,
  0x0d, 0x0f, 0x2b, 0xe1, 0x1e, 0xf8, 0x27, 0x1a, 0x2a, 0xf4, 0xee, 0xf7,
  0x31, 0xf1, 0xf4, 0x2a, 0x18, 0xf9, 0x11, 0xda, 0xe0, 0x1c, 0x2e, 0x24,
  0xf1, 0xd8, 0xd1, 0x19, 0xee, 0x2f, 0xe9, 0x32, 0x2e, 0x20, 0xe4, 0xef,
  0x16, 0xce, 0xe9, 0x00, 0xe0, 0xe4, 0xe9, 0xde, 0xdc, 0x11, 0x1a, 0xf9,
  0x03, 0xfd, 0x26, 0xea, 0x12, 0xd3, 0x06, 0x00, 0xff, 0xd1, 0xda, 0xe2,
  0xe8, 0xe4, 0xf8, 0xee, 0x24, 0xef, 0xfc, 0xe0, 0xd7, 0xe1, 0xd5, 0xe3,
  0xea, 0xc8, 0x24, 0xf6, 0xd2, 0x09, 0x0f, 0xef, 0x0a, 0xdd, 0x4a, 0xf5,
  0x13, 0x26, 0x19, 0xc2, 0xfe, 0x2c, 0x18, 0x1d, 0xd5, 0xbf, 0x24, 0x0a,
  0xe8, 0x17, 0x10, 0xcf, 0xfa, 0xfb, 0x1e, 0xed, 0x1f, 0xd8, 0x28, 0xd6,
  0x30, 0x32, 0x0f, 0x16, 0x22, 0xd6, 0x10, 0x0d, 0x18, 0x15, 0x04, 0xd4,
  0xe8, 0x0a, 0xf9, 0x1c, 0xea, 0xfc, 0x2f, 0x13, 0x1a, 0x38, 0x2d, 0x0c,
  0xcf, 0x03, 0x0d, 0xc2, 0x3c, 0xc0, 0xeb, 0xe2, 0x11, 0xf8, 0x24, 0xec,
  0xe3, 0x14, 0x29, 0xf6, 0x34, 0x2b, 0x28, 0xf9, 0xdc, 0x0e, 0xd0, 0x15,
  0xda, 0xfd, 0x3c, 0x41, 0x11, 0xcb, 0xbd, 0xe5, 0x39, 0x40, 0x32, 0x46,
  0xdb, 0x64, 0xf8, 0xc7, 0x25, 0x03, 0xd5, 0x07, 0x1d, 0x42, 0x1f, 0xef,
  0xbc, 0xfd, 0x2f, 0x41, 0xf0, 0xf6, 0x1e, 0x17, 0x65, 0x75, 0xbd, 0x0a,
  0xf0, 0x0d, 0xfc, 0xc4, 0xf6, 0xcf, 0x35, 0xe8, 0x0d, 0xdf, 0xec, 0x38,
  0x2e, 0x01, 0x07, 0x35, 0xfc, 0x3d, 0x2f, 0x18, 0xed, 0x20, 0xde, 0x00,
  0x34, 0xbf, 0xd1, 0xe3, 0x2e, 0x0a, 0x3f, 0x08, 0x21, 0xc2, 0x0f, 0x20,
  0x26, 0x08, 0xc0, 0xdb, 0xd2, 0xe6, 0x3e, 0x3c, 0xe3, 0x15, 0xf5, 0xe8,
  0xfb, 0xd0, 0xe4, 0x15, 0x39, 0x3b, 0xd0, 0x2a, 0xcf, 0x22, 0x2a, 0x04,
  0x28, 0xf4, 0xef, 0x10, 0xd7, 0x0b, 0x06, 0x40, 0x08, 0xf3, 0x40, 0x22,
  0x1a, 0xcf, 0x2d, 0xe9, 0xff, 0x26, 0x12, 0x43, 0x59, 0x4c, 0xe2, 0x05,
  0x40, 0xff, 0x0d, 0x11, 0x0e, 0xbd, 0x27, 0xe1, 0xe6, 0x52, 0xe5, 0x39,
  0x25, 0x36, 0x1c, 0x3e, 0xd6, 0x3d, 0xfc, 0xf0, 0xd6, 0x3c, 0xca, 0xca,
  0x27, 0xee, 0x1b, 0x01, 0x18, 0xde, 0xe2, 0x3a, 0xe3, 0x18, 0xce, 0x04,
  0xc4, 0x1b, 0x16, 0x06, 0xed, 0xe9, 0xfa, 0x02, 0x2b, 0x17, 0x24, 0x24,
  0xc3, 0xd7, 0x2d, 0x40, 0x1c, 0xdd, 0x28, 0x20, 0x40, 0xee, 0xe3, 0xc4,
  0x0a, 0x1b, 0x16, 0x1b, 0xf3, 0x1b, 0x1a, 0xda, 0xca, 0x0d, 0x0e, 0x15,
  0x2d, 0xd5, 0xd9, 0xcf, 0x32, 0x65, 0x33, 0xb4, 0xe7, 0xda, 0xdf, 0x08,
  0x05, 0x00, 0xcf, 0xd7, 0x27, 0xd6, 0xf8, 0x22, 0x35, 0xc2, 0xf9, 0x0d,
  0xdb, 0xe7, 0x4d, 0xaa, 0x21, 0x09, 0xfd, 0xe9, 0xda, 0x81, 0x71, 0xee,
  0xe0, 0x3b, 0x18, 0xf1, 0xd8, 0xf3, 0xf9, 0xde, 0x00, 0x3d, 0x07, 0xca,
  0xf7, 0xbe, 0xc8, 0x15, 0xbf, 0xdc, 0xff, 0x3e, 0xfc, 0x1f, 0xf1, 0x0d,
  0x42, 0x2e, 0x2e, 0x21, 0xcc, 0x16, 0xe5, 0xc4, 0x46, 0xee, 0x47, 0xca,
  0xc2, 0xd3, 0xd8, 0xd5, 0xc4, 0xbd, 0xf8, 0x26, 0x42, 0xd9, 0x11, 0xbc,
  0xd6, 0xd9, 0xcc, 0x20, 0xc7, 0xd4, 0xdf, 0x3a, 0x3b, 0xb9, 0xd5, 0xff,
  0xef, 0x29, 0xef, 0x13, 0xe5, 0xe6, 0xeb, 0x06, 0xcb, 0xff, 0xab, 0xec,
  0xff, 0x9e, 0xda, 0x4d, 0xfa, 0xe4, 0x57, 0xfc, 0x93, 0x04, 0x58, 0x68,
  0x69, 0x4d, 0x23, 0x9c, 0x1d, 0x30, 0x18, 0x18, 0x0a, 0x20, 0x40, 0x43,
  0x11, 0xf6, 0xf1, 0x17, 0x35, 0xce, 0x37, 0x0e, 0xdd, 0xd5, 0x03, 0xff,
  0xce, 0x18, 0x3d, 0x03, 0x0e, 0xf4, 0xd7, 0xd4, 0x1f, 0xdb, 0x2b, 0xc1,
  0xed, 0xdc, 0xc7, 0xfe, 0xdb, 0xf9, 0x2a, 0x06, 0x30, 0xc7, 0x36, 0xf8,
  0xf2, 0xcd, 0x44, 0xee, 0xbf, 0x44, 0x28, 0x3c, 0xf2, 0xbe, 0xc5, 0x2f,
  0x2b, 0x24, 0xf9, 0x0f, 0xcc, 0x21, 0x36, 0xd8, 0xbc, 0xfa, 0xbe, 0xec,
  0xc8, 0x3a, 0x1f, 0xc6, 0x00, 0x4d, 0x08, 0x81, 0xda, 0xf1, 0xab, 0xd6,
  0xf3, 0xed, 0xf4, 0x12, 0xfc, 0x1a, 0x02, 0x2a, 0xe3, 0x1f, 0xee, 0x2b,
  0xf6, 0x06, 0x24, 0xe0, 0xf9, 0x43, 0xb2, 0x34, 0x2b, 0xa1, 0x3d, 0xcf,
  0x42, 0xec, 0x2e, 0xb9, 0xbe, 0x19, 0x2f, 0x2f, 0x32, 0xf8, 0xf5, 0xde,
  0xbb, 0xdd, 0x44, 0xe6, 0xf1, 0x21, 0xc3, 0x08, 0x41, 0x18, 0x20, 0x1d,
  0xf4, 0xba, 0xda, 0xda, 0x1a, 0x0e, 0xbd, 0x24, 0x14, 0xf4, 0xd2, 0xcc,
  0x21, 0xf3, 0xc1, 0x24, 0x1c, 0x3a, 0xdc, 0xe5, 0xc7, 0x01, 0xff, 0xef,
  0x2c, 0x3e, 0xd1, 0xe5, 0x14, 0x2f, 0xe5, 0xde, 0x10, 0x05, 0xcd, 0xea,
  0x47, 0x41, 0x1f, 0xbb, 0x45, 0xe8, 0x1d, 0xf5, 0xda, 0xc2, 0xeb, 0x28,
  0x1f, 0xd8, 0x5a, 0x56, 0x06, 0x4e, 0xe5, 0xe0, 0xf3, 0xd1, 0x46, 0x08,
  0x5d, 0xe5, 0x49, 0xc8, 0xba, 0xca, 0xf1, 0xd9, 0x14, 0xe5, 0xbd, 0x0e,
  0xbc, 0x48, 0x2c, 0xba, 0xf5, 0xd3, 0xcc, 0x00, 0xe8, 0xf1, 0xdc, 0x33,
  0xed, 0x07, 0xd2, 0xc8, 0xef, 0xc2, 0x1c, 0xea, 0x47, 0xd0, 0xff, 0x47,
  0x0d, 0xf7, 0xc8, 0x26, 0x0c, 0x3e, 0x15, 0x33, 0xff, 0x17, 0xdd, 0x24,
  0x26, 0xe1, 0xf8, 0xe1, 0xe8, 0xdb, 0x2c, 0xf8, 0x0e, 0x02, 0x0d, 0xf2,
  0xcd, 0xf5, 0xd4, 0x03, 0x23, 0x31, 0x2c, 0x17, 0xd7, 0x30, 0xcd, 0x27,
  0xda, 0x28, 0xe1, 0x02, 0x25, 0x01, 0xee, 0xaf, 0xea, 0x08, 0xfe, 0x33,
  0xd8, 0xd3, 0xfc, 0xf4, 0x35, 0xdf, 0xae, 0x21, 0x09, 0x2b, 0xe4, 0x81,
  0xca, 0xe5, 0x07, 0x19, 0x0c, 0x16, 0x1b, 0xca, 0x26, 0x29, 0xac, 0xd2,
  0x14, 0x10, 0xf4, 0xd0, 0xf1, 0xe3, 0xf2, 0xfb, 0x21, 0x04, 0x17, 0xec,
  0xf6, 0xfd, 0x16, 0xd7, 0xde, 0x03, 0xd9, 0x2e, 0xfe, 0x1f, 0xcf, 0x10,
  0xf3, 0xd8, 0x25, 0x1c, 0xf4, 0x22, 0x0f, 0x29, 0xd2, 0x2c, 0x0b, 0xff,
  0xfe, 0x30, 0x2d, 0x05, 0x12, 0xdd, 0x1f, 0xf9, 0xec, 0xf2, 0x14, 0xf9,
  0xea, 0x26, 0xd6, 0x27, 0x30, 0x15, 0xe0, 0x14, 0x23, 0x20, 0x26, 0x34,
  0x2d, 0x25, 0x0d, 0x11, 0x3b, 0x31, 0x0b, 0xf6, 0xfa, 0xf3, 0x1b, 0xe4,
  0xcc, 0x09, 0x0c, 0x17, 0xdc, 0x00, 0x03, 0x14, 0x2d, 0xda, 0x31, 0xf7,
  0x1e, 0x32, 0x0f, 0x16, 0x27, 0x5e, 0xd8, 0x0c, 0xf8, 0x08, 0x1c, 0x0c,
  0xf7, 0x07, 0x02, 0x0e, 0x00, 0x23, 0xf8, 0x14, 0x2e, 0xd4, 0x22, 0xee,
  0x1c, 0x30, 0x20, 0x22, 0xfc, 0x17, 0x33, 0x15, 0x24, 0xd8, 0x14, 0x0e,
  0x1c, 0xe4, 0x2c, 0x06, 0x1b, 0xd1, 0x1a, 0x04, 0x07, 0xdd, 0x19, 0x1c,
  0xdd, 0x0e, 0x1a, 0x2a, 0x07, 0x31, 0x05, 0xe0, 0x22, 0x19, 0xe8, 0x2d,
  0xfa, 0x2e, 0xea, 0xcb, 0xd4, 0xf6, 0x2b, 0xfd, 0xd9, 0xdb, 0xfa, 0x00,
  0x0b, 0xce, 0xd7, 0xd0, 0x01, 0xe8, 0xfe, 0x01, 0xe5, 0x33, 0xf4, 0x1f,
  0x2f, 0xd9, 0x24, 0xdc, 0x43, 0x0d, 0x19, 0xe9, 0x28, 0xe4, 0xe8, 0xe1,
  0x29, 0xef, 0x0d, 0x1b, 0x11, 0xf5, 0x00, 0xe6, 0xf9, 0x0b, 0x00, 0xe7,
  0x2f, 0xcb, 0x2c, 0xe7, 0x28, 0xe4, 0x2c, 0x1e, 0x28, 0x07, 0x05, 0x24,
  0x0a, 0xe5, 0xfc, 0x09, 0x04, 0x30, 0xf3, 0xeb, 0xcb, 0x05, 0x0d, 0x10,
  0x09, 0xea, 0xef, 0xe7, 0x2f, 0x15, 0x28, 0xd1, 0xf8, 0x18, 0xc1, 0x17,
  0x01, 0xe7, 0xde, 0x52, 0xfe, 0xaf, 0xfb, 0xf9, 0xb3, 0xc7, 0xcb, 0xb2,
  0xb3, 0x30, 0xef, 0xbc, 0x41, 0xb5, 0xb4, 0x11, 0xca, 0x2a, 0x4c, 0xdc,
  0xdb, 0xcf, 0xd5, 0xf4, 0x52, 0x38, 0xbf, 0x90, 0x06, 0x31, 0x12, 0xd7,
  0xcc, 0x4a, 0xf0, 0x68, 0x1c, 0xba, 0xd3, 0xe1, 0x18, 0x05, 0xa6, 0x57,
  0xa5, 0x12, 0x69, 0xbc, 0x1c, 0x5b, 0x26, 0x23, 0xa0, 0x06, 0x32, 0x1f,
  0x16, 0xd4, 0xda, 0x2a, 0x0d, 0xc0, 0x43, 0x2d, 0xe9, 0xcf, 0x49, 0xd4,
  0x42, 0xd2, 0xd3, 0x03, 0x02, 0x2e, 0xf3, 0x4f, 0xfe, 0x34, 0x1c, 0xf2,
  0xd7, 0xbb, 0x05, 0x27, 0x05, 0xbb, 0x27, 0x12, 0x4b, 0xdd, 0xe7, 0xed,
  0xe0, 0xeb, 0xc2, 0x05, 0xcd, 0xe4, 0x29, 0xf0, 0x08, 0x52, 0x35, 0xec,
  0x3b, 0x09, 0x0f, 0x2b, 0x3b, 0xb2, 0xbf, 0xb2, 0xcc, 0xfa, 0x38, 0xe8,
  0x46, 0xcc, 0xbf, 0xe7, 0xb7, 0xe8, 0xe3, 0xc1, 0xa6, 0x93, 0x81, 0xd0,
  0xa2, 0xba, 0xbd, 0xe1, 0x0c, 0x3f, 0xf2, 0x15, 0xbf, 0xfe, 0xd9, 0xff,
  0x1c, 0xfd, 0xf0, 0xd7, 0xa9, 0x8b, 0xd3, 0xc4, 0xc9, 0xb7, 0x89, 0xe7,
  0xba, 0x34, 0x2b, 0x52, 0xc9, 0xe1, 0x30, 0xc3, 0x29, 0x05, 0x2f, 0x22,
  0x1c, 0x3b, 0x19, 0x13, 0xc7, 0xe8, 0xe5, 0xc3, 0x18, 0xd2, 0xd9, 0x25,
  0xed, 0x27, 0xe1, 0xe9, 0xe5, 0x45, 0x3e, 0x02, 0xc5, 0x29, 0xce, 0x0f,
  0x3d, 0x28, 0xed, 0x0f, 0xc0, 0x3d, 0x2c, 0xe8, 0xe4, 0x3f, 0x23, 0xcd,
  0x27, 0x4e, 0x1f, 0x35, 0xc8, 0xf8, 0x23, 0x3d, 0xe4, 0xe4, 0x02, 0xcd,
  0xc0, 0x2f, 0x18, 0xdb, 0x00, 0xfc, 0x5c, 0x27, 0x41, 0xda, 0x60, 0xd8,
  0x51, 0xe1, 0x68, 0x4f, 0x63, 0xf4, 0x20, 0x68, 0xd3, 0xee, 0x07, 0x7f,
  0x0a, 0x48, 0x38, 0x47, 0x1a, 0xec, 0x1b, 0x3c, 0xcd, 0x4c, 0xbd, 0x03,
  0x46, 0x24, 0xc7, 0xf3, 0xbd, 0xca, 0x51, 0x0e, 0x1e, 0xeb, 0x0c, 0x52,
  0xbe, 0xc3, 0x1b, 0xf2, 0xf3, 0x0f, 0xe0, 0x29, 0xb0, 0xe1, 0x10, 0x0e,
  0x20, 0xcf, 0x01, 0x03, 0x51, 0xb5, 0x3e, 0xfe, 0xf2, 0xe0, 0xd6, 0x3b,
  0x22, 0xb9, 0xce, 0xfe, 0xcb, 0x44, 0x0a, 0xcb, 0xba, 0x25, 0xce, 0x20,
  0x2e, 0xc1, 0xbb, 0xdb, 0x19, 0x49, 0xde, 0x10, 0x37, 0xeb, 0xd7, 0xeb,
  0x1f, 0xcf, 0xed, 0xdc, 0x16, 0xb4, 0xbf, 0xe4, 0x3c, 0x03, 0x46, 0x1f,
  0xf7, 0x2e, 0x06, 0x03, 0x05, 0xf0, 0xc1, 0x3d, 0x46, 0x4f, 0xdb, 0xe4,
  0x0d, 0x17, 0xf1, 0x7f, 0xf2, 0xd9, 0xf8, 0xdd, 0x3b, 0x50, 0xd3, 0x41,
  0x35, 0x49, 0xcb, 0x2e, 0xd9, 0x38, 0xf2, 0xee, 0x1f, 0xd1, 0xe2, 0xd1,
  0x1b, 0xcb, 0xc3, 0xc8, 0x16, 0xb9, 0x3d, 0xbd, 0x0c, 0x2d, 0xf0, 0xd6,
  0x0c, 0xbb, 0x20, 0x3a, 0x25, 0x12, 0x02, 0x0a, 0x0d, 0x09, 0xca, 0x0f,
  0x1f, 0x15, 0x36, 0xe5, 0xd9, 0x2b, 0xe8, 0x30, 0xc6, 0xe0, 0x40, 0xe4,
  0x29, 0xf5, 0xe6, 0xfc, 0xdf, 0xf0, 0x31, 0x1e, 0x0e, 0xbe, 0xf9, 0xfc,
  0xf0, 0xc8, 0xb9, 0x35, 0x1f, 0x0f, 0x18, 0x21, 0x0d, 0xdd, 0x14, 0x02,
  0xde, 0xee, 0x0c, 0xe8, 0xbe, 0xc5, 0x08, 0x10, 0x1a, 0x20, 0x19, 0xea,
  0x39, 0xd2, 0x3a, 0x22, 0x67, 0xe3, 0xd5, 0xa0, 0x4f, 0x7d, 0xe0, 0x5c,
  0x15, 0xee, 0x16, 0xe7, 0x41, 0x3e, 0x16, 0x0f, 0xe6, 0xc3, 0x16, 0xbf,
  0xb9, 0xf0, 0x30, 0x21, 0xe6, 0xc8, 0xc6, 0xec, 0xb8, 0xd9, 0xcf, 0xdb,
  0x00, 0x1a, 0xd5, 0x04, 0xcb, 0x44, 0x0d, 0xff, 0x03, 0x14, 0xea, 0xb9,
  0x2a, 0xe3, 0x1c, 0x2f, 0xbd, 0xbf, 0xe8, 0xd4, 0x39, 0x45, 0x32, 0xe2,
  0x3f, 0xbb, 0x35, 0xc6, 0x04, 0xc9, 0x1e, 0x35, 0xf0, 0xe1, 0xff, 0x1a,
  0xd0, 0xdc, 0x41, 0x16, 0xdb, 0xf5, 0xe3, 0xdf, 0xb0, 0x11, 0xc1, 0x1b,
  0x26, 0xb6, 0xca, 0x0c, 0x2d, 0x23, 0xeb, 0x43, 0x40, 0xd3, 0x04, 0xc7,
  0xc9, 0xc5, 0xd1, 0x00, 0xfb, 0x29, 0x2d, 0x45, 0xae, 0x94, 0x3c, 0xd5,
  0x44, 0xf0, 0x01, 0x24, 0xbb, 0xec, 0xf5, 0x3e, 0x42, 0xf5, 0x09, 0x0e,
  0xbb, 0xf6, 0x0b, 0x2e, 0xbf, 0x12, 0xe8, 0x1b, 0xf1, 0x39, 0x39, 0x11,
  0xf8, 0x35, 0xe5, 0xcd, 0xcd, 0xbb, 0x13, 0x04, 0xcd, 0x4b, 0xc8, 0xf7,
  0xe7, 0x45, 0xf2, 0xb3, 0xda, 0xf6, 0xf0, 0xfa, 0xbb, 0xef, 0x13, 0x3e,
  0xb9, 0xc0, 0xc4, 0x13, 0xc2, 0xc7, 0x05, 0x19, 0xef, 0x10, 0xcb, 0x16,
  0x36, 0x27, 0x36, 0x31, 0xe2, 0x1f, 0x41, 0x0b, 0xff, 0x22, 0x7c, 0x4f,
  0x3d, 0x74, 0x22, 0xe9, 0xf1, 0x41, 0xe2, 0x45, 0x26, 0x2a, 0xcf, 0x0a,
  0xc8, 0x36, 0xe3, 0x33, 0xfb, 0x0f, 0x37, 0xeb, 0x3c, 0x7f, 0xc1, 0xdf,
  0xf0, 0xd6, 0xc3, 0xe4, 0x3d, 0x31, 0xd8, 0xf3, 0xd8, 0x33, 0xd8, 0x20,
  0x4d, 0xdb, 0xb9, 0x32, 0x39, 0x05, 0x24, 0xc4, 0x16, 0xeb, 0xdf, 0x36,
  0x45, 0xf3, 0x13, 0x32, 0x1b, 0x1a, 0xb9, 0x22, 0xcf, 0xdd, 0xd5, 0xff,
  0xd1, 0xd6, 0xf3, 0x21, 0x2d, 0x02, 0xb5, 0xc9, 0xdd, 0x13, 0x06, 0xea,
  0xd6, 0xbd, 0xdf, 0xcf, 0xd2, 0x2f, 0xbb, 0x39, 0x15, 0x3c, 0xd7, 0x36,
  0x11, 0xee, 0x33, 0xc3, 0x39, 0x34, 0x42, 0x41, 0x54, 0xff, 0xc7, 0xdb,
  0xf2, 0x1a, 0xc7, 0x26, 0xd6, 0x1d, 0xa9, 0x2a, 0xfc, 0x62, 0x95, 0xda,
  0xee, 0x16, 0x7e, 0xe2, 0x2a, 0x0a, 0xc2, 0x16, 0xef, 0x17, 0xb4, 0xd1,
  0xd3, 0xd5, 0x42, 0xf3, 0x0f, 0xc1, 0x4b, 0x08, 0xf4, 0xc3, 0xcb, 0xd8,
  0x3a, 0x2d, 0x11, 0xd9, 0xb8, 0x0e, 0x15, 0xc5, 0xf1, 0xb9, 0x4b, 0xbe,
  0x2d, 0x26, 0xf7, 0xe2, 0xe0, 0xcb, 0x42, 0xd0, 0x2b, 0xda, 0xb4, 0x20,
  0xbc, 0x47, 0xd0, 0x30, 0x3a, 0x29, 0x3b, 0xdb, 0xb7, 0x24, 0xc5, 0x26,
  0x03, 0x2a, 0x45, 0x12, 0xf8, 0xcb, 0xfb, 0xf9, 0x1a, 0x28, 0x14, 0x09,
  0xc4, 0x40, 0x00, 0xbe, 0xf3, 0xe7, 0x2f, 0x2c, 0x58, 0xe3, 0xf3, 0x28,
  0xe1, 0x2b, 0xd5, 0xfa, 0xc6, 0xac, 0x03, 0xd3, 0xc7, 0x27, 0x60, 0xf1,
  0xac, 0x0f, 0xfe, 0xda, 0x34, 0x25, 0x33, 0x13, 0x52, 0x22, 0xc0, 0xc5,
  0x1b, 0x06, 0x3a, 0xea, 0x46, 0x33, 0x42, 0x3d, 0x3c, 0xfe, 0xe8, 0xcf,
  0x26, 0xc3, 0xeb, 0xc4, 0x3f, 0x11, 0xe0, 0x1f, 0xdc, 0xe2, 0x25, 0x2a,
  0x47, 0x21, 0x37, 0x1d, 0xe2, 0x2e, 0xd2, 0x11, 0x3a, 0xd9, 0x32, 0x2e,
  0xfc, 0x35, 0x28, 0x27, 0x22, 0x3a, 0x1b, 0xfc, 0x14, 0xe7, 0x13, 0xfe,
  0x02, 0x19, 0x1e, 0x29, 0x15, 0xee, 0x1f, 0xeb, 0x22, 0xda, 0xde, 0xf6,
  0x2f, 0xfc, 0xf2, 0x1c, 0xcf, 0xae, 0xcb, 0xd7, 0xec, 0x26, 0xdb, 0x2e,
  0x0f, 0x0c, 0xcd, 0x06, 0x8f, 0xdd, 0x0b, 0xfc, 0xe6, 0xf2, 0x19, 0x29,
  0xdf, 0x26, 0xea, 0x16, 0xbf, 0xd7, 0x41, 0xe3, 0xe9, 0x04, 0x05, 0x03,
  0x0c, 0xfb, 0x3c, 0xfc, 0xf2, 0xe1, 0x26, 0xf6, 0xf1, 0xe6, 0xc5, 0x1c,
  0x3d, 0xed, 0x25, 0xfa, 0x32, 0xda, 0x00, 0x1d, 0xc6, 0xd3, 0xee, 0x24,
  0x3f, 0xee, 0x2a, 0xe9, 0x0c, 0xef, 0x21, 0xfa, 0x00, 0xf4, 0x05, 0xfa,
  0xf1, 0x07, 0x05, 0xea, 0xd7, 0x02, 0xca, 0x03, 0x3a, 0x18, 0xc3, 0x01,
  0xdf, 0xf1, 0x0c, 0x03, 0xdc, 0xfe, 0x1f, 0x39, 0x0b, 0x0d, 0x18, 0x39,
  0x36, 0x3e, 0x38, 0x2b, 0xdc, 0xe5, 0x1a, 0x56, 0x0e, 0x16, 0x41, 0x3b,
  0x22, 0xe4, 0x7b, 0x1a, 0x11, 0xa8, 0x00, 0xf5, 0x01, 0x0b, 0xda, 0xf7,
  0x36, 0xe2, 0xdf, 0x26, 0xb2, 0xfc, 0x62, 0x29, 0xde, 0x7f, 0xe9, 0x15,
  0xfb, 0xc1, 0x31, 0x10, 0x38, 0x38, 0xd4, 0x1e, 0x26, 0x18, 0xf7, 0xcc,
  0xdc, 0xec, 0xe9, 0xf8, 0xfb, 0xd7, 0x17, 0xca, 0x01, 0xe4, 0xd9, 0xdb,
  0x02, 0x10, 0x0a, 0xeb, 0xcf, 0xf0, 0xc5, 0xfe, 0xd3, 0xf6, 0x3c, 0xf6,
  0xcb, 0xec, 0x01, 0xf3, 0xc7, 0xc9, 0x0d, 0x1d, 0x31, 0x00, 0x2d, 0x34,
  0xe0, 0x21, 0x33, 0x33, 0xe2, 0x05, 0xef, 0x17, 0xf3, 0x06, 0xc7, 0xdf,
  0x20, 0xd0, 0x1f, 0x01, 0xc2, 0x0f, 0xde, 0xed, 0x49, 0x6a, 0x0a, 0x43,
  0x09, 0x5c, 0xcc, 0xde, 0xe0, 0xa8, 0xe8, 0x05, 0xbf, 0x29, 0xae, 0x10,
  0xfb, 0x15, 0xf0, 0xf4, 0x11, 0x24, 0xf5, 0x33, 0x4d, 0x54, 0x13, 0x0e,
  0xcf, 0xfc, 0xfd, 0xf3, 0x02, 0x23, 0xc4, 0x01, 0xc7, 0x0b, 0x0f, 0xd4,
  0x28, 0x30, 0x2a, 0xfc, 0x1d, 0xc2, 0x07, 0xeb, 0x32, 0x1e, 0xce, 0xe1,
  0xd7, 0x19, 0xd8, 0x32, 0x13, 0xe6, 0x06, 0xc2, 0xf0, 0xe4, 0x1a, 0x2b,
  0x32, 0xcc, 0x00, 0xf7, 0x01, 0x2f, 0xf2, 0xfc, 0x35, 0xcc, 0x11, 0xe7,
  0x19, 0x08, 0xce, 0x06, 0x06, 0x32, 0x0e, 0xd7, 0x04, 0xfe, 0xd5, 0x0b,
  0xda, 0x26, 0x27, 0x07, 0xb9, 0x23, 0x1d, 0x22, 0xc6, 0xe1, 0xf1, 0xcc,
  0x5f, 0x09, 0x09, 0xe7, 0x43, 0x20, 0x7f, 0xed, 0xd2, 0xfc, 0xff, 0x38,
  0x01, 0x17, 0x3b, 0xee, 0x08, 0x09, 0x35, 0x22, 0xe9, 0x15, 0x30, 0x16,
  0xe0, 0xed, 0xd0, 0x05, 0xfd, 0xd9, 0x33, 0xd8, 0xe6, 0xff, 0xfa, 0xea,
  0xce, 0x1b, 0x01, 0x31, 0xfe, 0xf6, 0x0b, 0x06, 0x23, 0xd8, 0x14, 0x19,
  0x34, 0x21, 0xd5, 0x18, 0x0f, 0x0d, 0xe5, 0x0d, 0x20, 0xe4, 0x10, 0xcf,
  0xef, 0xdd, 0xe8, 0x0b, 0x20, 0xe5, 0x2f, 0x14, 0xf0, 0xd8, 0xce, 0xfb,
  0x0c, 0xfa, 0x0b, 0xd6, 0xda, 0x15, 0x15, 0xf7, 0x0b, 0x0d, 0xd0, 0xf1,
  0x25, 0xde, 0x2c, 0xdb, 0x09, 0x1c, 0xfe, 0xe5, 0x2b, 0xd4, 0xa4, 0x14,
  0x01, 0x3c, 0x26, 0x1f, 0x24, 0x1c, 0xec, 0x14, 0xfa, 0xf5, 0xfc, 0x10,
  0x07, 0xfd, 0xd5, 0xe0, 0x07, 0x60, 0x12, 0x30, 0xee, 0x1b, 0x38, 0xc9,
  0xcd, 0xe4, 0x18, 0x02, 0x0c, 0xcd, 0x28, 0xe3, 0xd5, 0x2b, 0x14, 0x10,
  0x24, 0x2e, 0x03, 0x1b, 0xe3, 0x0e, 0xd5, 0x33, 0x28, 0x0b, 0x2a, 0x0d,
  0xec, 0x18, 0x10, 0x02, 0xf2, 0x03, 0x10, 0xe5, 0xee, 0x23, 0xd2, 0x22,
  0x10, 0xed, 0xfa, 0x04, 0xd5, 0xd8, 0xd1, 0x26, 0x2d, 0xe0, 0x09, 0xd7,
  0xfa, 0x2a, 0x09, 0x2e, 0x25, 0x0d, 0x35, 0x2c, 0xd0, 0xd6, 0xe4, 0xfc,
  0x16, 0xde, 0x0d, 0xff, 0xd9, 0xe4, 0xe7, 0x03, 0xc3, 0x02, 0xcb, 0x09,
  0xd0, 0xd2, 0xd0, 0x15, 0xa6, 0xbe, 0xfb, 0xbd, 0xb2, 0xfe, 0xe0, 0x25,
  0xd1, 0x05, 0x10, 0x12, 0x10, 0xf2, 0x19, 0xec, 0xf7, 0xcd, 0x0f, 0xe9,
  0xd0, 0xe5, 0x23, 0xd6, 0x28, 0xd2, 0x29, 0x18, 0x17, 0xd7, 0xe8, 0xf9,
  0x20, 0x19, 0xf2, 0x1b, 0x19, 0x0c, 0x24, 0x09, 0xe0, 0x2d, 0x0f, 0xd0,
  0xe4, 0xd7, 0x30, 0xcb, 0x2f, 0xe1, 0xe9, 0xf0, 0x05, 0x19, 0xd5, 0x17,
  0xfe, 0xf6, 0xf5, 0xf5, 0xfa, 0x2b, 0xea, 0x28, 0x14, 0x2c, 0x2c, 0x12,
  0xe0, 0x1e, 0x12, 0xde, 0xd2, 0xda, 0x1d, 0xda, 0xd5, 0x1f, 0xf7, 0xd3,
  0xee, 0x1e, 0xf9, 0xff, 0x22, 0xa7, 0xcc, 0x15, 0x29, 0xd2, 0x36, 0x10,
  0x3a, 0x08, 0x01, 0xdc, 0xbf, 0x12, 0x06, 0x25, 0x0a, 0xf7, 0x0c, 0x29,
  0x06, 0xdc, 0xb1, 0xfb, 0xd0, 0x10, 0x00, 0x1f, 0x0a, 0xe4, 0x16, 0x11,
  0x1d, 0x02, 0x19, 0xf6, 0xf6, 0x1a, 0xdc, 0x07, 0xd3, 0xd5, 0xfb, 0xe5,
  0xd5, 0xd2, 0x18, 0xd4, 0x0c, 0xd8, 0x0e, 0x0d, 0x17, 0xd4, 0xdd, 0x25,
  0xfd, 0xd0, 0xfb, 0x20, 0x14, 0xda, 0xfe, 0xee, 0x25, 0x05, 0xdd, 0x2c,
  0xfa, 0x26, 0x19, 0xeb, 0xe1, 0x1f, 0x0c, 0x06, 0xe1, 0xfb, 0xf7, 0x29,
  0x20, 0x21, 0x02, 0xd5, 0xfe, 0xe3, 0xd9, 0xdf, 0x07, 0xe7, 0xef, 0x26,
  0x27, 0xe2, 0xd6, 0xfb, 0x0c, 0xdf, 0x03, 0x7f, 0xee, 0xda, 0x15, 0xf0,
  0x12, 0xcb, 0x3d, 0xc2, 0xc0, 0xfd, 0xea, 0x22, 0x3b, 0xed, 0x9f, 0xc0,
  0x39, 0x07, 0x2f, 0xfe, 0xdb, 0xaa, 0x11, 0x1e, 0x27, 0x26, 0xc5, 0x28,
  0x0f, 0xdb, 0x06, 0xe1, 0xeb, 0xd8, 0x22, 0xdc, 0xe3, 0xe0, 0x1f, 0x12,
  0x0c, 0xee, 0xfa, 0x0f, 0xd8, 0x11, 0xd2, 0xda, 0xd4, 0xf5, 0xed, 0xde,
  0xd0, 0xeb, 0xe1, 0xff, 0xf3, 0x11, 0x0d, 0x02, 0xd2, 0x14, 0xe7, 0xf3,
  0x21, 0xef, 0xf6, 0xf7, 0x08, 0xd9, 0x20, 0x08, 0x15, 0xff, 0x2c, 0x1a,
  0xe1, 0xed, 0xd3, 0xd5, 0xd6, 0x2e, 0xdb, 0x03, 0xd6, 0xe4, 0xe4, 0x1c,
  0xf2, 0xf5, 0x11, 0xf8, 0xd9, 0x43, 0xe5, 0xd2, 0xdf, 0x2e, 0xe0, 0x0f,
  0xd7, 0x27, 0xfa, 0xd5, 0xd3, 0x0e, 0xe9, 0xec, 0x0a, 0xcd, 0xce, 0x00,
  0x05, 0xe1, 0xc7, 0x07, 0xdf, 0x05, 0xce, 0x10, 0xdf, 0xff, 0xda, 0xf4,
  0xd5, 0xf3, 0x06, 0xf1, 0x0e, 0x30, 0xdf, 0x07, 0xe3, 0xdc, 0xd3, 0xf5,
  0x1a, 0x28, 0x0d, 0xf0, 0xe6, 0xdb, 0xd7, 0x1c, 0xde, 0xf6, 0xd9, 0x2d,
  0xea, 0xe2, 0x0d, 0xdb, 0x2d, 0x20, 0x1e, 0xf8, 0xca, 0x0a, 0x1b, 0x0e,
  0xc5, 0xfe, 0x05, 0x10, 0x0e, 0x2d, 0x23, 0xf9, 0x0f, 0xe3, 0x2f, 0xd3,
  0xeb, 0xff, 0xdc, 0x07, 0xf0, 0xf5, 0x1f, 0x36, 0xc2, 0x39, 0x31, 0xe5,
  0xf4, 0xcd, 0x28, 0xeb, 0x23, 0xac, 0xbf, 0xf8, 0x2a, 0xce, 0xec, 0xfb,
  0x13, 0x19, 0x03, 0x10, 0xc8, 0xe4, 0xe6, 0xed, 0xed, 0x2b, 0x52, 0x1f,
  0x0d, 0xe1, 0xba, 0x2a, 0x19, 0x09, 0x4a, 0x1f, 0x17, 0xe7, 0x3f, 0x9f,
  0x10, 0xe9, 0x10, 0xf9, 0xf2, 0x10, 0x26, 0x1b, 0xf2, 0x1e, 0xfa, 0x0d,
  0xfd, 0x14, 0xd4, 0x08, 0x3d, 0xcc, 0xda, 0xc9, 0x32, 0xf0, 0x18, 0xc9,
  0x03, 0xe8, 0x21, 0xe4, 0x33, 0x2f, 0x31, 0xd5, 0x19, 0x13, 0x26, 0xeb,
  0xf2, 0x06, 0xd1, 0x09, 0xea, 0x19, 0xe4, 0xff, 0x20, 0x32, 0xee, 0xff,
  0x38, 0xf4, 0xfa, 0xfe, 0xd9, 0x20, 0x27, 0xf9, 0xd5, 0x24, 0x0a, 0xc9,
  0x28, 0x24, 0xcf, 0xce, 0x0e, 0xac, 0x43, 0x45, 0x1d, 0xc0, 0x45, 0x0f,
  0x20, 0x89, 0xe2, 0xd2, 0x1e, 0xb9, 0x20, 0xf3, 0x05, 0xdc, 0xb9, 0x18,
  0x55, 0xde, 0x39, 0xd0, 0xb6, 0x81, 0xdc, 0xea, 0x37, 0x15, 0xc8, 0x27,
  0x3f, 0xff, 0x05, 0xfe, 0xd3, 0xc1, 0x06, 0x1a, 0x12, 0xfa, 0xd5, 0xef,
  0xc2, 0x14, 0xff, 0x17, 0x24, 0x2f, 0xf4, 0xe8, 0xc8, 0x06, 0x1e, 0xd3,
  0x15, 0x28, 0xde, 0x2a, 0x36, 0x3c, 0xff, 0xfd, 0x09, 0xc2, 0x1a, 0xdc,
  0xdf, 0x32, 0x38, 0x27, 0x12, 0xcc, 0x35, 0xd4, 0xe7, 0xfc, 0xee, 0x39,
  0x13, 0xf4, 0x17, 0xe7, 0xc8, 0x0a, 0xc1, 0xec, 0x2e, 0xf5, 0xfa, 0x30,
  0x1a, 0x23, 0x3c, 0x08, 0x2c, 0x00, 0xe5, 0x0a, 0xfd, 0x19, 0xd6, 0xe1,
  0x33, 0x2d, 0x15, 0xae, 0xf2, 0x45, 0xab, 0x16, 0x11, 0xc8, 0xc3, 0x2e,
  0x41, 0xf2, 0xf2, 0xe0, 0x43, 0x0a, 0x1b, 0xd7, 0x06, 0xc2, 0xf7, 0xc3,
  0x30, 0xe2, 0xf9, 0x30, 0x27, 0x3c, 0x28, 0xf5, 0xe9, 0x0b, 0xd6, 0x38,
  0xe4, 0xd6, 0xfa, 0x21, 0x1a, 0x06, 0x2c, 0x2c, 0xe6, 0x10, 0x32, 0x3c,
  0x40, 0xf3, 0xc4, 0xce, 0x03, 0xd4, 0xdc, 0x22, 0xf2, 0xe2, 0x25, 0x1d,
  0x0a, 0x14, 0xda, 0xe1, 0x1f, 0xd5, 0x20, 0xef, 0x13, 0xe0, 0x25, 0x04,
  0x18, 0xe9, 0x11, 0xea, 0x15, 0xd3, 0x1b, 0x13, 0x09, 0x06, 0xf5, 0xda,
  0xd3, 0x0c, 0x1a, 0xef, 0xcc, 0xfa, 0x16, 0x0a, 0xec, 0xd3, 0x59, 0x1f,
  0x25, 0x5d, 0x18, 0xf5, 0xd6, 0xf4, 0xff, 0x1d, 0x0c, 0x05, 0x46, 0x2e,
  0xf6, 0x23, 0x1c, 0x1e, 0xfe, 0xf0, 0x11, 0x02, 0xf5, 0xfa, 0x24, 0xfc,
  0x16, 0x0a, 0x1b, 0xf0, 0x12, 0xf8, 0xd4, 0xe0, 0xe6, 0x04, 0xe7, 0x18,
  0x1c, 0xf7, 0xef, 0x20, 0x1c, 0xe0, 0x26, 0xe1, 0x07, 0x05, 0xf8, 0xdf,
  0x17, 0x27, 0xdd, 0x25, 0x1a, 0x07, 0x2a, 0xfb, 0x02, 0x1b, 0xd6, 0xdc,
  0x16, 0xff, 0xd9, 0xe4, 0x0f, 0xfb, 0xd7, 0xf8, 0xf0, 0xf3, 0xda, 0x26,
  0xee, 0x2e, 0x1a, 0x0e, 0x13, 0xd5, 0xd7, 0xde, 0xdb, 0x25, 0xeb, 0x08,
  0x20, 0x0a, 0xea, 0x1f, 0x15, 0xd4, 0x27, 0x50, 0x2d, 0xf9, 0x42, 0xd4,
  0x45, 0xf1, 0x01, 0xd6, 0x11, 0xd8, 0x35, 0xe8, 0x29, 0x08, 0xc2, 0xf3,
  0x35, 0x01, 0x12, 0x05, 0xec, 0x81, 0x19, 0x22, 0x26, 0x27, 0xd9, 0xf0,
  0xd5, 0xde, 0x16, 0xd6, 0x00, 0x0b, 0x2b, 0xe8, 0x1c, 0xd9, 0x0e, 0xdc,
  0x03, 0xfe, 0xf1, 0x1e, 0x11, 0x1e, 0xe7, 0xd2, 0xf2, 0x0c, 0x0d, 0x00,
  0xf8, 0xff, 0xed, 0xf7, 0x21, 0xfe, 0xf1, 0xff, 0xfd, 0xe6, 0xe2, 0x21,
  0xf1, 0x13, 0x0f, 0xf9, 0xfc, 0x12, 0x00, 0x1b, 0xdc, 0x01, 0x2d, 0x16,
  0x14, 0x29, 0x02, 0x24, 0x24, 0x2a, 0xed, 0x0c, 0xe5, 0x24, 0xd8, 0x1c,
  0x0d, 0x1c, 0xf4, 0x0c, 0x15, 0x23, 0xdf, 0xec, 0xfa, 0x28, 0xaa, 0x17,
  0x08, 0x20, 0xca, 0xd9, 0xe6, 0x0f, 0xff, 0x18, 0xff, 0x2b, 0xd8, 0x08,
  0xfc, 0xe3, 0xf6, 0x1f, 0xff, 0xfd, 0xe4, 0xec, 0x09, 0x0e, 0x14, 0x06,
  0xff, 0xdc, 0xdd, 0x0e, 0x1b, 0xd9, 0xe2, 0x25, 0x0a, 0x0b, 0x0f, 0x01,
  0xda, 0xe1, 0xf1, 0xef, 0x29, 0x17, 0x1e, 0xde, 0xe9, 0x1c, 0xd8, 0x12,
  0xe2, 0xe9, 0x2c, 0x11, 0xd3, 0xea, 0xfe, 0xd9, 0xdb, 0xda, 0xea, 0x00,
  0x08, 0x2b, 0x36, 0x19, 0x0f, 0xdb, 0x20, 0xf1, 0xfb, 0xf2, 0xf4, 0xec,
  0x11, 0xd5, 0x13, 0x38, 0x00, 0xf6, 0xf4, 0x0e, 0x29, 0x0f, 0x19, 0xce,
  0x1f, 0xd2, 0xff, 0x21, 0x3e, 0xd0, 0x34, 0x2b, 0x4c, 0x1c, 0x02, 0x24,
  0xd7, 0x10, 0xec, 0xc4, 0x50, 0xea, 0xe6, 0x35, 0x49, 0x21, 0x16, 0xd9,
  0x12, 0xdf, 0x05, 0x1c, 0x45, 0xda, 0xc5, 0x0d, 0x39, 0x7f, 0xca, 0xe4,
  0xfc, 0xd2, 0x2b, 0x23, 0xcc, 0xd2, 0x1a, 0xea, 0xd8, 0xd4, 0xdd, 0xce,
  0x06, 0x17, 0xe7, 0xf3, 0x05, 0x1b, 0xdd, 0x1d, 0xcb, 0xc9, 0x38, 0x03,
  0xd1, 0x0c, 0x08, 0x27, 0x2c, 0x2c, 0xfc, 0xfa, 0x0e, 0x05, 0xdb, 0xf2,
  0x11, 0xe4, 0xcd, 0xf0, 0x30, 0xfc, 0x32, 0x01, 0xef, 0x1d, 0x2b, 0x0d,
  0xd1, 0xe3, 0x0c, 0x17, 0x2f, 0x14, 0x06, 0x28, 0xf7, 0x25, 0x13, 0x0b,
  0xe0, 0x37, 0x35, 0x21, 0xf2, 0x1f, 0x37, 0x66, 0xf0, 0x12, 0x39, 0xc7,
  0x0e, 0xbc, 0x13, 0xf4, 0x06, 0xcf, 0xdf, 0x2b, 0x2c, 0xfd, 0xe0, 0x03,
  0x2d, 0x16, 0xf0, 0x07, 0x4c, 0xee, 0xcb, 0xce, 0xf1, 0x22, 0xec, 0x67,
  0xef, 0x27, 0xef, 0x01, 0xd5, 0xe3, 0xea, 0x36, 0x25, 0xe2, 0x16, 0xcf,
  0xf4, 0x0f, 0xe5, 0xfb, 0xca, 0xe5, 0x31, 0x0a, 0x0b, 0x1d, 0x10, 0x2a,
  0x0a, 0x17, 0x37, 0xe2, 0xd2, 0x1e, 0xdc, 0x1b, 0xd0, 0x35, 0x03, 0xdb,
